<pad>	0
<unk>	0
<|bos|>	0
</s>	0
<|user_start|>	0
<|user_end|>	0
<|assistant_start|>	0
<|assistant_end|>	0
<|python_start|>	0
<|python_end|>	0
<|output_start|>	0
<|output_end|>	0
▁क	-0
▁t	-1
▁a	-2
he	-3
in	-4
re	-5
▁स	-6
▁the	-7
▁o	-8
er	-9
▁ह	-10
▁s	-11
at	-12
on	-13
▁प	-14
▁c	-15
en	-16
▁म	-17
es	-18
▁w	-19
is	-20
nd	-21
it	-22
or	-23
▁p	-24
्र	-25
▁के	-26
▁है	-27
al	-28
▁b	-29
▁f	-30
an	-31
ing	-32
ed	-33
▁of	-34
ou	-35
ें	-36
▁in	-37
ar	-38
▁m	-39
▁to	-40
▁and	-41
▁ज	-42
ic	-43
▁d	-44
ार	-45
ion	-46
या	-47
▁व	-48
ों	-49
▁अ	-50
le	-51
ने	-52
▁ब	-53
▁में	-54
ro	-55
▁ल	-56
as	-57
▁h	-58
र्	-59
िक	-60
▁th	-61
ता	-62
ent	-63
▁ए	-64
▁औ	-65
▁द	-66
्य	-67
▁और	-68
ct	-69
il	-70
▁e	-71
▁re	-72
▁T	-73
▁कर	-74
ve	-75
▁र	-76
▁l	-77
om	-78
ान	-79
▁उ	-80
▁की	-81
▁न	-82
▁को	-83
st	-84
▁से	-85
▁n	-86
▁प्र	-87
▁आ	-88
▁is	-89
▁be	-90
ly	-91
▁कि	-92
ित	-93
se	-94
▁g	-95
▁का	-96
▁हैं	-97
ol	-98
▁ग	-99
स्	-100
▁A	-101
▁त	-102
▁एक	-103
ation	-104
id	-105
ना	-106
et	-107
im	-108
ut	-109
ow	-110
ur	-111
क्	-112
ot	-113
ce	-114
िए	-115
ch	-116
ra	-117
▁S	-118
▁I	-119
▁y	-120
▁for	-121
ig	-122
▁u	-123
▁on	-124
▁st	-125
▁1	-126
▁पर	-127
▁that	-128
▁(	-129
▁इ	-130
▁C	-131
ver	-132
▁The	-133
ाल	-134
▁य	-135
▁श	-136
ir	-137
▁लिए	-138
ते	-139
्व	-140
ay	-141
ul	-142
▁you	-143
am	-144
ति	-145
▁भ	-146
▁सं	-147
▁are	-148
ith	-149
▁as	-150
el	-151
▁च	-152
▁pro	-153
▁हो	-154
ad	-155
her	-156
▁वि	-157
▁an	-158
▁con	-159
▁with	-160
▁or	-161
if	-162
▁it	-163
िय	-164
▁wh	-165
▁M	-166
▁al	-167
od	-168
ter	-169
▁जा	-170
▁P	-171
▁2	-172
ड़	-173
ोग	-174
से	-175
ge	-176
ment	-177
▁सा	-178
th	-179
▁W	-180
▁थ	-181
▁B	-182
op	-183
ill	-184
ate	-185
ers	-186
ess	-187
▁"	-188
▁he	-189
▁de	-190
▁सम	-191
ist	-192
ies	-193
▁स्	-194
िन	-195
ab	-196
▁ex	-197
ore	-198
▁H	-199
ect	-200
ती	-201
▁su	-202
▁com	-203
िया	-204
▁we	-205
▁ha	-206
ke	-207
us	-208
ity	-209
ला	-210
est	-211
ive	-212
▁ड	-213
क्ष	-214
ac	-215
▁यह	-216
um	-217
res	-218
▁v	-219
rom	-220
00	-221
▁can	-222
▁करने	-223
▁D	-224
ld	-225
▁इस	-226
के	-227
्या	-228
ले	-229
▁जो	-230
ant	-231
os	-232
qu	-233
त्र	-234
ही	-235
▁E	-236
▁ख	-237
em	-238
nt	-239
▁-	-240
▁F	-241
▁by	-242
ain	-243
▁at	-244
iv	-245
▁सक	-246
igh	-247
pp	-248
वा	-249
▁ch	-250
ud	-251
हा	-252
▁from	-253
▁R	-254
▁ne	-255
▁अध	-256
▁r	-257
▁फ	-258
सा	-259
oc	-260
ort	-261
▁उन	-262
▁उप	-263
त्	-264
and	-265
▁ने	-266
▁किया	-267
ूप	-268
्ट	-269
▁se	-270
ंग	-271
ial	-272
री	-273
▁was	-274
▁N	-275
▁le	-276
ure	-277
▁अन	-278
▁या	-279
un	-280
▁दे	-281
art	-282
▁अप	-283
▁have	-284
▁L	-285
ाम	-286
▁G	-287
ical	-288
▁not	-289
िल	-290
▁रूप	-291
▁en	-292
▁sh	-293
▁नि	-294
og	-295
▁sp	-296
हीं	-297
▁आप	-298
ri	-299
का	-300
▁this	-301
ओं	-302
नी	-303
▁ले	-304
▁नहीं	-305
▁ab	-306
▁wor	-307
▁भी	-308
रा	-309
ight	-310
rou	-311
▁O	-312
▁ट	-313
all	-314
▁अधिक	-315
pt	-316
▁In	-317
ome	-318
▁बा	-319
ost	-320
out	-321
▁your	-322
du	-323
our	-324
▁us	-325
▁im	-326
red	-327
ions	-328
gh	-329
योग	-330
▁कार	-331
ould	-332
▁pl	-333
ich	-334
कार	-335
रण	-336
ine	-337
per	-338
ther	-339
▁था	-340
▁साथ	-341
ाव	-342
ide	-343
ियों	-344
िस	-345
ag	-346
ated	-347
▁their	-348
act	-349
ard	-350
ell	-351
्ष	-352
ear	-353
ff	-354
▁वाल	-355
मा	-356
▁Th	-357
▁U	-358
ast	-359
सी	-360
▁int	-361
pl	-362
च्	-363
age	-364
ak	-365
तर	-366
▁k	-367
▁will	-368
▁whe	-369
▁they	-370
ood	-371
▁19	-372
▁गया	-373
ust	-374
ans	-375
▁पह	-376
ंड	-377
▁छ	-378
▁more	-379
ec	-380
▁हम	-381
वि	-382
▁ad	-383
iz	-384
स्त	-385
कि	-386
ous	-387
▁which	-388
ल्	-389
▁inc	-390
▁all	-391
ult	-392
ुर	-393
▁dis	-394
ां	-395
▁cont	-396
▁“	-397
end	-398
▁comp	-399
cc	-400
ib	-401
ru	-402
vel	-403
▁has	-404
ली	-405
▁J	-406
ंद	-407
ाय	-408
ap	-409
▁do	-410
ong	-411
so	-412
▁res	-413
ild	-414
गा	-415
▁उपयोग	-416
▁विश	-417
▁रा	-418
ip	-419
ater	-420
orm	-421
▁तक	-422
ष्ट	-423
▁कु	-424
ere	-425
▁सी	-426
ations	-427
ia	-428
are	-429
ाइ	-430
ew	-431
ास	-432
्ह	-433
▁20	-434
ks	-435
▁कम	-436
ीय	-437
ेश	-438
able	-439
▁स्थ	-440
▁अनु	-441
▁3	-442
ारा	-443
▁te	-444
▁cl	-445
ोज	-446
▁जाता	-447
▁वे	-448
क्र	-449
रे	-450
▁man	-451
ary	-452
भी	-453
▁other	-454
ोट	-455
द्	-456
ally	-457
ind	-458
ry	-459
ents	-460
प्	-461
▁घ	-462
ence	-463
ूर्	-464
ake	-465
ीन	-466
▁but	-467
ep	-468
▁imp	-469
▁also	-470
ार्	-471
ाह	-472
ach	-473
ारे	-474
▁परि	-475
reat	-476
▁प्रति	-477
▁हु	-478
▁per	-479
स्थ	-480
▁me	-481
▁one	-482
oo	-483
▁करते	-484
▁द्व	-485
ase	-486
ance	-487
▁अपने	-488
ढ़	-489
▁कै	-490
▁j	-491
की	-492
्ञ	-493
ign	-494
ब्	-495
स्ट	-496
▁so	-497
▁out	-498
▁It	-499
▁सकता	-500
▁ध	-501
ंध	-502
au	-503
▁about	-504
ass	-505
▁stud	-506
मान	-507
मे	-508
▁स्व	-509
ress	-510
av	-511
्यू	-512
very	-513
▁St	-514
▁This	-515
▁वर्	-516
one	-517
▁tim	-518
▁were	-519
ुन	-520
ice	-521
▁उत्	-522
ition	-523
ction	-524
ace	-525
▁तो	-526
ूल	-527
ाद	-528
▁pe	-529
▁app	-530
▁जान	-531
▁part	-532
▁who	-533
▁un	-534
▁inf	-535
भाव	-536
ारी	-537
ens	-538
▁बी	-539
ount	-540
ber	-541
ike	-542
▁ar	-543
ory	-544
च्च	-545
▁sc	-546
ack	-547
▁रह	-548
▁लेक	-549
▁ev	-550
▁sy	-551
ज्ञ	-552
ord	-553
▁कुछ	-554
▁उन्ह	-555
ite	-556
ors	-557
▁वाले	-558
ame	-559
▁them	-560
▁क्ष	-561
ire	-562
▁अं	-563
ue	-564
▁comm	-565
▁मह	-566
िका	-567
ish	-568
▁करें	-569
▁बना	-570
▁द्वारा	-571
ang	-572
now	-573
ose	-574
ound	-575
low	-576
ub	-577
ces	-578
▁मा	-579
▁करता	-580
ाग	-581
▁up	-582
ुत	-583
▁K	-584
▁मु	-585
▁जब	-586
द्ध	-587
▁सकते	-588
▁pre	-589
▁जिस	-590
▁may	-591
ree	-592
ays	-593
ople	-594
▁than	-595
ric	-596
▁bec	-597
्यों	-598
▁qu	-599
नों	-600
olog	-601
▁पी	-602
▁जी	-603
ile	-604
▁विक	-605
▁year	-606
iff	-607
्स	-608
▁लेकिन	-609
कों	-610
▁बह	-611
▁rec	-612
▁some	-613
खा	-614
▁when	-615
ail	-616
ानी	-617
▁Y	-618
--	-619
▁जै	-620
ie	-621
▁4	-622
king	-623
िश	-624
▁201	-625
▁दो	-626
▁वा	-627
ren	-628
▁निर्	-629
▁how	-630
▁Ch	-631
▁people	-632
ings	-633
nder	-634
▁time	-635
ग्र	-636
▁पा	-637
▁his	-638
▁into	-639
▁5	-640
ates	-641
में	-642
▁go	-643
▁करना	-644
▁tra	-645
mer	-646
िर	-647
▁there	-648
टर	-649
▁use	-650
▁over	-651
▁थे	-652
▁ro	-653
▁its	-654
▁V	-655
▁our	-656
alth	-657
ough	-658
▁been	-659
rit	-660
▁diff	-661
▁लोग	-662
ेल	-663
▁these	-664
श्य	-665
▁col	-666
vers	-667
▁like	-668
ause	-669
rough	-670
lud	-671
▁sa	-672
को	-673
धार	-674
▁मान	-675
जा	-676
िंग	-677
चार	-678
).	-679
▁hel	-680
ph	-681
ोध	-682
erv	-683
▁bl	-684
▁व्य	-685
जन	-686
▁सब	-687
्न	-688
▁ag	-689
▁एस	-690
▁most	-691
ms	-692
▁कहा	-693
▁आव	-694
▁need	-695
ual	-696
ष्	-697
▁know	-698
ons	-699
ian	-700
ning	-701
▁लग	-702
ृत	-703
te	-704
▁ra	-705
दान	-706
ll	-707
ove	-708
row	-709
▁act	-710
▁200	-711
▁Wh	-712
▁cons	-713
▁समय	-714
प्त	-715
्ल	-716
▁help	-717
▁bet	-718
ेट	-719
▁child	-720
ities	-721
),	-722
▁अन्य	-723
ific	-724
जी	-725
velop	-726
▁चाह	-727
int	-728
▁new	-729
क्त	-730
ond	-731
les	-732
ject	-733
▁tr	-734
मी	-735
▁मै	-736
ys	-737
▁तर	-738
tern	-739
▁acc	-740
▁देख	-741
▁under	-742
irst	-743
▁प्रा	-744
▁ही	-745
ments	-746
..	-747
▁if	-748
lect	-749
we	-750
lic	-751
बंध	-752
सर	-753
▁उस	-754
stem	-755
ffect	-756
ज्ञान	-757
ौर	-758
▁des	-759
▁पहले	-760
ple	-761
ज़	-762
▁ओ	-763
▁includ	-764
ient	-765
ious	-766
रिक	-767
टी	-768
▁tw	-769
▁such	-770
▁work	-771
ool	-772
▁सु	-773
▁what	-774
▁थी	-775
ोल	-776
▁बारे	-777
ंत्र	-778
▁बहुत	-779
ेत्र	-780
क्षा	-781
▁any	-782
cess	-783
▁would	-784
▁used	-785
▁दिया	-786
▁बाद	-787
▁कई	-788
▁क्षेत्र	-789
ob	-790
▁शाम	-791
ating	-792
▁सबसे	-793
ेष	-794
श्यक	-795
करण	-796
दी	-797
यन	-798
▁गए	-799
yp	-800
▁ph	-801
क्ति	-802
▁rep	-803
▁18	-804
▁produ	-805
▁rel	-806
्रे	-807
▁many	-808
▁develop	-809
ational	-810
▁पू	-811
▁fe	-812
▁आवश्यक	-813
▁gen	-814
ular	-815
ुल	-816
▁बढ़	-817
▁through	-818
िक्ष	-819
round	-820
▁शामिल	-821
▁had	-822
ook	-823
ative	-824
▁prov	-825
क्षण	-826
hed	-827
▁Un	-828
▁di	-829
ंब	-830
▁ऑ	-831
▁pr	-832
वर्	-833
दि	-834
▁only	-835
▁–	-836
▁होता	-837
▁बच्च	-838
ced	-839
ov	-840
▁off	-841
▁दू	-842
त्व	-843
ंच	-844
▁first	-845
ूर्ण	-846
कर्	-847
▁यू	-848
ड़े	-849
िला	-850
▁ऊ	-851
ड़ी	-852
ise	-853
▁क्या	-854
▁.	-855
▁spec	-856
गे	-857
▁डी	-858
▁कार्य	-859
▁ऐ	-860
▁am	-861
▁ac	-862
ics	-863
ful	-864
▁As	-865
oss	-866
▁पै	-867
▁6	-868
▁em	-869
ोर	-870
च्छ	-871
▁तरह	-872
uc	-873
▁ind	-874
▁differe	-875
uring	-876
eth	-877
ath	-878
क्रम	-879
fter	-880
▁system	-881
▁प्रभाव	-882
hen	-883
▁no	-884
श्	-885
▁po	-886
▁राज	-887
ts	-888
▁water	-889
als	-890
▁add	-891
▁इन	-892
▁health	-893
oth	-894
▁two	-895
▁exp	-896
▁reg	-897
िट	-898
ark	-899
ten	-900
ble	-901
ange	-902
एँ	-903
ility	-904
▁sur	-905
ne	-906
▁हुए	-907
iss	-908
▁होती	-909
▁dec	-910
▁गई	-911
▁किसी	-912
▁He	-913
ible	-914
▁वह	-915
▁fl	-916
arch	-917
▁होने	-918
गी	-919
▁should	-920
ased	-921
old	-922
▁उत्प	-923
ife	-924
▁well	-925
र्श	-926
यों	-927
erm	-928
ोंने	-929
वी	-930
ower	-931
वल	-932
िम	-933
ures	-934
▁जीव	-935
ram	-936
ुद	-937
rop	-938
ंप	-939
▁rese	-940
ेन	-941
▁रहे	-942
▁विशेष	-943
▁रख	-944
▁sm	-945
र्थ	-946
▁कारण	-947
▁get	-948
rib	-949
र्म	-950
▁ob	-951
000	-952
ताओं	-953
ract	-954
▁If	-955
▁सू	-956
▁सभी	-957
own	-958
▁क्यों	-959
▁years	-960
▁make	-961
चित	-962
वर	-963
▁उन्हें	-964
▁rem	-965
▁ass	-966
▁supp	-967
यु	-968
▁att	-969
▁कह	-970
ng	-971
▁उनके	-972
ध्य	-973
▁अमे	-974
fore	-975
▁high	-976
▁जिन	-977
▁काम	-978
▁शुर	-979
▁co	-980
▁inv	-981
देश	-982
ert	-983
▁लोगों	-984
लग	-985
chool	-986
its	-987
ंक	-988
▁ई	-989
▁bu	-990
ोक	-991
हर	-992
chn	-993
ड़ा	-994
wn	-995
▁could	-996
ween	-997
▁lear	-998
▁10	-999
ोर्	-1000
मक	-1001
पूर्ण	-1002
hes	-1003
▁where	-1004
ting	-1005
gan	-1006
वार	-1007
▁अध्य	-1008
▁import	-1009
्रा	-1010
िस्	-1011
ष्ट्र	-1012
ience	-1013
▁ता	-1014
िज	-1015
▁वर्ष	-1016
ants	-1017
▁हाल	-1018
ade	-1019
cy	-1020
▁कोई	-1021
ily	-1022
▁अपनी	-1023
▁चाहिए	-1024
▁We	-1025
xt	-1026
▁How	-1027
▁sub	-1028
ick	-1029
▁between	-1030
ैन	-1031
▁pres	-1032
ology	-1033
sel	-1034
uch	-1035
▁गु	-1036
▁टी	-1037
ever	-1038
▁7	-1039
▁प्रत	-1040
▁pers	-1041
िप	-1042
ution	-1043
▁ear	-1044
▁विश्व	-1045
▁exam	-1046
▁भू	-1047
ied	-1048
▁num	-1049
दा	-1050
▁एम	-1051
▁यदि	-1052
▁trans	-1053
ef	-1054
कारी	-1055
▁car	-1056
▁सि	-1057
▁different	-1058
▁साम	-1059
▁होते	-1060
ata	-1061
▁inst	-1062
▁जैसे	-1063
ंद्र	-1064
▁her	-1065
ural	-1066
gy	-1067
▁form	-1068
चा	-1069
ines	-1070
▁med	-1071
▁exper	-1072
ually	-1073
meric	-1074
ormation	-1075
▁mod	-1076
▁world	-1077
ाँ	-1078
तन	-1079
ident	-1080
ink	-1081
▁केवल	-1082
▁महत्व	-1083
▁long	-1084
ists	-1085
▁For	-1086
▁just	-1087
▁8	-1088
▁disc	-1089
भग	-1090
वे	-1091
▁रहा	-1092
▁found	-1093
aw	-1094
▁आवश्यकता	-1095
▁way	-1096
▁स्थान	-1097
▁Al	-1098
iet	-1099
ुक	-1100
▁typ	-1101
ness	-1102
ियम	-1103
▁व्या	-1104
▁sim	-1105
aking	-1106
▁मूल	-1107
▁वै	-1108
ins	-1109
▁effect	-1110
▁ke	-1111
▁इसे	-1112
कर	-1113
▁because	-1114
प्र	-1115
▁said	-1116
▁उन्होंने	-1117
▁even	-1118
ict	-1119
▁very	-1120
▁An	-1121
▁नी	-1122
ited	-1123
▁ed	-1124
ोन	-1125
get	-1126
ंट	-1127
▁inter	-1128
-1	-1129
▁pol	-1130
ft	-1131
▁छा	-1132
▁children	-1133
▁incre	-1134
▁lar	-1135
,000	-1136
land	-1137
ron	-1138
▁ला	-1139
▁मे	-1140
▁see	-1141
▁लगभग	-1142
▁सकती	-1143
▁after	-1144
▁कॉ	-1145
षण	-1146
▁then	-1147
र्क	-1148
▁count	-1149
▁det	-1150
▁पु	-1151
▁अव	-1152
▁बे	-1153
ature	-1154
▁ref	-1155
▁prog	-1156
▁hum	-1157
vent	-1158
▁क्योंकि	-1159
▁every	-1160
्री	-1161
▁cent	-1162
20	-1163
ives	-1164
ivers	-1165
माण	-1166
▁किए	-1167
▁Americ	-1168
▁उद	-1169
urn	-1170
cer	-1171
ically	-1172
▁लगा	-1173
▁विभ	-1174
काश	-1175
▁var	-1176
▁(1	-1177
▁techn	-1178
oy	-1179
▁process	-1180
▁दि	-1181
ाली	-1182
▁9	-1183
▁शोध	-1184
▁students	-1185
▁Pro	-1186
▁gra	-1187
▁sign	-1188
ody	-1189
▁ca	-1190
iron	-1191
▁स्थित	-1192
other	-1193
नि	-1194
▁'	-1195
▁They	-1196
.”	-1197
▁वास्त	-1198
▁important	-1199
तों	-1200
▁sk	-1201
▁gener	-1202
▁those	-1203
्रो	-1204
▁सह	-1205
ases	-1206
▁call	-1207
▁pat	-1208
▁resp	-1209
▁अध्ययन	-1210
arm	-1211
▁इसके	-1212
cept	-1213
▁pub	-1214
▁fol	-1215
▁पता	-1216
कृत	-1217
▁ext	-1218
▁each	-1219
्म	-1220
▁food	-1221
▁अच्छ	-1222
▁There	-1223
▁मद	-1224
ds	-1225
▁result	-1226
▁करती	-1227
▁बीच	-1228
▁संबंध	-1229
▁You	-1230
▁life	-1231
▁loc	-1232
▁cre	-1233
ages	-1234
ues	-1235
▁महत्वपूर्ण	-1236
▁पर्	-1237
iew	-1238
▁read	-1239
▁being	-1240
त्मक	-1241
▁मदद	-1242
▁छोट	-1243
▁फिर	-1244
▁स्ट	-1245
ॉन	-1246
▁fact	-1247
गर	-1248
▁आई	-1249
▁information	-1250
ck	-1251
▁अंतर	-1252
▁soc	-1253
ps	-1254
▁commun	-1255
▁बार	-1256
▁much	-1257
▁छात्र	-1258
▁राष्ट्र	-1259
▁वाली	-1260
ाई	-1261
लय	-1262
▁requ	-1263
▁उत्पाद	-1264
▁grow	-1265
ros	-1266
----	-1267
▁study	-1268
ruct	-1269
▁find	-1270
▁आम	-1271
▁mon	-1272
पर	-1273
led	-1274
▁partic	-1275
▁sec	-1276
▁प्रदान	-1277
▁set	-1278
▁यु	-1279
ील	-1280
▁fam	-1281
▁Re	-1282
▁she	-1283
omm	-1284
▁समा	-1285
ism	-1286
ित्	-1287
▁मिल	-1288
▁आपको	-1289
▁शिक्ष	-1290
tle	-1291
▁data	-1292
▁lead	-1293
▁proble	-1294
▁art	-1295
▁व्यक्ति	-1296
▁does	-1297
▁स्वा	-1298
▁during	-1299
ices	-1300
▁level	-1301
▁अनुस	-1302
ख्या	-1303
▁ग्र	-1304
▁dep	-1305
▁वास्तव	-1306
cent	-1307
▁school	-1308
इट	-1309
ेर	-1310
शत	-1311
▁What	-1312
▁che	-1313
स्थ्य	-1314
▁प्राप्त	-1315
▁जाने	-1316
con	-1317
▁def	-1318
▁प्रतिशत	-1319
▁मौ	-1320
▁cur	-1321
▁स्प	-1322
ize	-1323
चे	-1324
▁पास	-1325
विध	-1326
▁कैसे	-1327
▁own	-1328
▁साल	-1329
▁But	-1330
▁av	-1331
▁good	-1332
ूह	-1333
▁बात	-1334
▁ent	-1335
gg	-1336
▁विज्ञान	-1337
▁रोग	-1338
▁back	-1339
▁लि	-1340
क्स	-1341
▁राज्य	-1342
ather	-1343
▁बि	-1344
viron	-1345
▁person	-1346
▁जाए	-1347
▁using	-1348
▁बद	-1349
▁केंद्र	-1350
▁dist	-1351
ोजना	-1352
▁follow	-1353
▁स्वास्थ्य	-1354
form	-1355
▁प्रकार	-1356
ward	-1357
▁aut	-1358
▁जल	-1359
▁एल	-1360
▁min	-1361
any	-1362
▁ins	-1363
ाना	-1364
stand	-1365
ाप	-1366
▁right	-1367
ोप	-1368
ुख	-1369
▁डॉ	-1370
▁एन	-1371
ork	-1372
हार	-1373
▁Con	-1374
▁expl	-1375
▁चिक	-1376
वरण	-1377
ized	-1378
▁my	-1379
▁same	-1380
ection	-1381
▁gl	-1382
▁show	-1383
▁treat	-1384
▁dise	-1385
▁गति	-1386
ergy	-1387
▁स्क	-1388
ved	-1389
▁बन	-1390
▁made	-1391
▁शुरू	-1392
▁sol	-1393
ुनिया	-1394
▁research	-1395
▁आपके	-1396
▁str	-1397
्यालय	-1398
▁small	-1399
▁हुआ	-1400
दर्श	-1401
▁जिसमें	-1402
▁जन	-1403
io	-1404
read	-1405
▁hist	-1406
हास	-1407
▁often	-1408
▁तुल	-1409
▁end	-1410
▁test	-1411
▁less	-1412
▁आर	-1413
एं	-1414
म्	-1415
▁सो	-1416
▁comple	-1417
▁समुद	-1418
▁ris	-1419
▁पानी	-1420
▁take	-1421
ध्यम	-1422
▁Sp	-1423
▁मैं	-1424
ेक	-1425
▁नाम	-1426
akes	-1427
ale	-1428
▁both	-1429
▁before	-1430
▁body	-1431
▁Sc	-1432
▁क्र	-1433
vern	-1434
▁day	-1435
ex	-1436
▁अलग	-1437
▁जि	-1438
▁main	-1439
▁तुलना	-1440
hers	-1441
▁गै	-1442
ially	-1443
ब्द	-1444
ality	-1445
und	-1446
▁प्रकाश	-1447
hip	-1448
▁pop	-1449
▁जीवन	-1450
▁prot	-1451
▁grou	-1452
imate	-1453
▁around	-1454
ted	-1455
तिहास	-1456
▁Ar	-1457
▁|	-1458
vironment	-1459
orn	-1460
▁बै	-1461
▁while	-1462
▁When	-1463
▁15	-1464
ars	-1465
▁दिन	-1466
ien	-1467
▁br	-1468
omen	-1469
▁बच्चों	-1470
▁vis	-1471
iel	-1472
▁Ind	-1473
▁जहा	-1474
▁रे	-1475
▁val	-1476
▁199	-1477
▁हिस्	-1478
▁fun	-1479
▁too	-1480
▁विकास	-1481
ivid	-1482
▁start	-1483
▁जानकारी	-1484
ute	-1485
ix	-1486
▁redu	-1487
ince	-1488
▁दौर	-1489
▁now	-1490
चना	-1491
nce	-1492
▁प्रण	-1493
▁design	-1494
.)	-1495
लों	-1496
▁lit	-1497
rol	-1498
▁number	-1499
▁activ	-1500
▁poss	-1501
▁down	-1502
▁provid	-1503
▁जाती	-1504
iqu	-1505
dition	-1506
ty	-1507
▁परी	-1508
▁पार	-1509
▁लेख	-1510
rain	-1511
▁अब	-1512
▁power	-1513
▁दी	-1514
ock	-1515
▁दौरान	-1516
▁New	-1517
▁समझ	-1518
पी	-1519
▁serv	-1520
der	-1521
▁plan	-1522
▁These	-1523
ोजन	-1524
▁cell	-1525
विद	-1526
,”	-1527
क्ट	-1528
▁common	-1529
day	-1530
▁अंत	-1531
ished	-1532
▁class	-1533
ल्प	-1534
लिए	-1535
inal	-1536
डी	-1537
▁सुर	-1538
त्रा	-1539
ची	-1540
णाम	-1541
iversity	-1542
ax	-1543
▁hand	-1544
.,	-1545
iving	-1546
▁तरी	-1547
ier	-1548
▁To	-1549
ियो	-1550
▁organ	-1551
▁state	-1552
▁occ	-1553
मान्य	-1554
ूर्व	-1555
▁परिणाम	-1556
▁प्रत्य	-1557
▁ओर	-1558
▁कोश	-1559
▁मार्	-1560
▁support	-1561
▁माध्यम	-1562
▁And	-1563
ग्री	-1564
▁प्रश	-1565
स्प	-1566
भव	-1567
▁इं	-1568
ital	-1569
▁अभ	-1570
iety	-1571
▁शब्द	-1572
ger	-1573
▁पृ	-1574
up	-1575
▁पि	-1576
ves	-1577
्यान	-1578
air	-1579
▁संर	-1580
ral	-1581
▁दृ	-1582
धारित	-1583
▁mem	-1584
▁सर	-1585
ियाँ	-1586
▁cle	-1587
▁पर्या	-1588
▁खोज	-1589
▁again	-1590
ids	-1591
irect	-1592
▁three	-1593
ात	-1594
▁care	-1595
▁हमारे	-1596
▁elect	-1597
▁char	-1598
ारों	-1599
▁human	-1600
▁उच्च	-1601
▁समूह	-1602
ैंड	-1603
ters	-1604
ium	-1605
▁सर्	-1606
ury	-1607
ाने	-1608
)।	-1609
▁होगा	-1610
▁संभाव	-1611
rent	-1612
▁understand	-1613
▁इसलिए	-1614
ined	-1615
ड़ों	-1616
▁जु	-1617
द्य	-1618
ains	-1619
ulation	-1620
▁ठ	-1621
▁example	-1622
ving	-1623
्ले	-1624
िन्न	-1625
▁writ	-1626
▁ser	-1627
▁करके	-1628
▁bel	-1629
▁allow	-1630
▁build	-1631
▁educ	-1632
▁उनकी	-1633
▁12	-1634
ven	-1635
oh	-1636
▁point	-1637
oms	-1638
▁देश	-1639
▁must	-1640
▁eas	-1641
मि	-1642
▁including	-1643
▁great	-1644
ून	-1645
▁land	-1646
तियों	-1647
ांश	-1648
▁dr	-1649
▁conf	-1650
▁आस	-1651
▁learn	-1652
gen	-1653
ave	-1654
ंत	-1655
।"	-1656
▁large	-1657
▁report	-1658
▁जाते	-1659
ull	-1660
ross	-1661
▁जिसे	-1662
acter	-1663
ered	-1664
▁17	-1665
▁‘	-1666
cl	-1667
aterial	-1668
reen	-1669
ज्ञानिक	-1670
काल	-1671
▁som	-1672
▁स्तर	-1673
▁ब्र	-1674
▁दिखा	-1675
ets	-1676
aj	-1677
रों	-1678
▁adv	-1679
ouse	-1680
▁अमेरिक	-1681
ional	-1682
▁निक	-1683
ash	-1684
▁संप	-1685
▁energy	-1686
▁called	-1687
▁equ	-1688
0.	-1689
▁known	-1690
▁op	-1691
uss	-1692
मिक	-1693
ार्थ	-1694
▁contin	-1695
सित	-1696
युक्त	-1697
com	-1698
▁व्यव	-1699
▁Res	-1700
▁aw	-1701
ाष	-1702
ोस	-1703
▁परीक्षण	-1704
▁est	-1705
anc	-1706
▁still	-1707
ेद	-1708
▁environment	-1709
▁जाना	-1710
ंख	-1711
ाइन	-1712
itions	-1713
▁लंब	-1714
▁cour	-1715
▁दुनिया	-1716
▁caus	-1717
▁नए	-1718
▁bo	-1719
▁project	-1720
▁pract	-1721
▁quest	-1722
▁cor	-1723
▁want	-1724
▁Is	-1725
▁चल	-1726
▁निय	-1727
...	-1728
▁beh	-1729
ेटा	-1730
▁[	-1731
▁पहु	-1732
||	-1733
iver	-1734
▁महिला	-1735
▁sym	-1736
▁कार्यक्रम	-1737
ared	-1738
▁met	-1739
ential	-1740
तिक	-1741
▁don	-1742
els	-1743
ष्ठ	-1744
▁gu	-1745
▁govern	-1746
ries	-1747
The	-1748
▁पे	-1749
outh	-1750
मुख	-1751
ering	-1752
▁एच	-1753
लि	-1754
▁कंप	-1755
▁बच्चे	-1756
▁though	-1757
ources	-1758
स्या	-1759
▁few	-1760
▁change	-1761
▁disease	-1762
▁दोनों	-1763
▁did	-1764
▁light	-1765
▁Se	-1766
ected	-1767
▁might	-1768
▁परिवर्	-1769
me	-1770
ah	-1771
ित्सा	-1772
लो	-1773
self	-1774
▁ची	-1775
▁place	-1776
▁public	-1777
▁impro	-1778
ेंट	-1779
ियन	-1780
▁ऊर्	-1781
▁Ad	-1782
▁रो	-1783
▁ide	-1784
यर	-1785
▁chang	-1786
▁product	-1787
▁At	-1788
ired	-1789
▁const	-1790
itive	-1791
▁play	-1792
ग्रह	-1793
▁material	-1794
▁However	-1795
the	-1796
कृ	-1797
▁समस्या	-1798
angu	-1799
▁विचार	-1800
▁mat	-1801
▁इसका	-1802
▁ऐसा	-1803
▁tem	-1804
▁ben	-1805
▁stand	-1806
▁ret	-1807
▁blood	-1808
▁Ex	-1809
iod	-1810
ording	-1811
line	-1812
ividual	-1813
ॉर्	-1814
रिका	-1815
▁bre	-1816
▁स्कूल	-1817
ाहरण	-1818
ुआ	-1819
eng	-1820
raph	-1821
▁home	-1822
▁phys	-1823
▁ve	-1824
bs	-1825
erest	-1826
▁De	-1827
▁बनाने	-1828
iven	-1829
▁पुर	-1830
विद्यालय	-1831
▁prof	-1832
▁pot	-1833
▁वी	-1834
▁राष्ट्रीय	-1835
ोड़	-1836
स्ता	-1837
agn	-1838
▁झ	-1839
▁iss	-1840
▁दूस	-1841
▁एफ	-1842
▁उपकरण	-1843
▁न्यू	-1844
illion	-1845
▁प्रत्येक	-1846
▁बड़े	-1847
▁pain	-1848
de	-1849
▁चिकित्सा	-1850
▁appro	-1851
arent	-1852
ffic	-1853
क्षि	-1854
▁air	-1855
▁best	-1856
▁Eng	-1857
▁भाग	-1858
osed	-1859
▁University	-1860
oci	-1861
lish	-1862
▁ना	-1863
▁risk	-1864
▁eng	-1865
▁pur	-1866
▁अमेरिका	-1867
ाला	-1868
ption	-1869
▁पाठ	-1870
▁development	-1871
▁16	-1872
▁him	-1873
conom	-1874
esp	-1875
▁पो	-1876
▁spe	-1877
▁area	-1878
▁include	-1879
bers	-1880
▁समान	-1881
▁प्रमुख	-1882
▁कभी	-1883
▁विकसित	-1884
▁without	-1885
arc	-1886
ason	-1887
▁सामान्य	-1888
▁बता	-1889
▁देने	-1890
▁present	-1891
▁ऊर्जा	-1892
▁पद	-1893
▁हर	-1894
श्च	-1895
▁within	-1896
▁better	-1897
▁बदल	-1898
iness	-1899
धि	-1900
क्षित	-1901
▁विश्वविद्यालय	-1902
▁meth	-1903
▁विष	-1904
▁imm	-1905
▁sit	-1906
ization	-1907
ills	-1908
▁हुई	-1909
ब्ल	-1910
▁रंग	-1911
▁individual	-1912
ination	-1913
▁अधिकांश	-1914
▁स्थिति	-1915
ior	-1916
▁Sh	-1917
▁keep	-1918
ोर्ट	-1919
ertain	-1920
▁program	-1921
ense	-1922
▁संघ	-1923
▁Ph	-1924
▁ident	-1925
▁प्रणाली	-1926
erc	-1927
क्रिया	-1928
ित्र	-1929
ंस	-1930
inc	-1931
▁डेटा	-1932
ental	-1933
ration	-1934
▁sl	-1935
▁देता	-1936
▁ess	-1937
oun	-1938
▁संख्या	-1939
▁प्रो	-1940
▁look	-1941
ॉल	-1942
▁वैज्ञानिक	-1943
▁mus	-1944
▁American	-1945
▁women	-1946
▁प्रदर्श	-1947
▁last	-1948
ime	-1949
ats	-1950
gin	-1951
less	-1952
वाद	-1953
र्द	-1954
बी	-1955
र्भ	-1956
ner	-1957
▁cause	-1958
▁छोटे	-1959
▁जिन्ह	-1960
▁इतिहास	-1961
▁उदाहरण	-1962
▁11	-1963
▁मन	-1964
▁meas	-1965
▁dem	-1966
▁direct	-1967
▁become	-1968
▁Be	-1969
ify	-1970
▁anim	-1971
▁cap	-1972
▁social	-1973
▁तै	-1974
▁another	-1975
▁—	-1976
फी	-1977
▁top	-1978
atural	-1979
▁bas	-1980
ource	-1981
ability	-1982
▁=	-1983
▁learning	-1984
▁&	-1985
▁पुस्त	-1986
▁पढ़	-1987
्टी	-1988
▁ant	-1989
▁pass	-1990
▁डि	-1991
▁रही	-1992
▁pos	-1993
▁घट	-1994
sp	-1995
rodu	-1996
▁So	-1997
▁saf	-1998
▁Pl	-1999
▁$	-2000
▁निर्माण	-2001
ining	-2002
इन	-2003
ield	-2004
ways	-2005
णी	-2006
▁पूर्व	-2007
▁proper	-2008
▁old	-2009
▁low	-2010
▁Cl	-2011
क्सर	-2012
."	-2013
▁विभिन्न	-2014
▁30	-2015
ुष	-2016
ton	-2017
दार	-2018
िकी	-2019
▁interest	-2020
ajor	-2021
▁sever	-2022
▁anal	-2023
▁history	-2024
▁ध्यान	-2025
बू	-2026
▁tre	-2027
▁provide	-2028
▁सफ	-2029
ris	-2030
मार	-2031
▁प्रक्रिया	-2032
▁जे	-2033
▁control	-2034
50	-2035
▁early	-2036
orth	-2037
▁belie	-2038
",	-2039
जे	-2040
▁opp	-2041
ently	-2042
इड	-2043
ank	-2044
▁ये	-2045
▁Can	-2046
ccess	-2047
▁तीन	-2048
▁says	-2049
▁लाग	-2050
ients	-2051
ived	-2052
rap	-2053
▁benef	-2054
▁move	-2055
▁dev	-2056
▁अक्सर	-2057
शन	-2058
सम	-2059
▁cult	-2060
▁avail	-2061
▁rest	-2062
▁able	-2063
▁percent	-2064
▁real	-2065
eral	-2066
▁here	-2067
ृद्ध	-2068
▁scient	-2069
▁पुन	-2070
बर	-2071
▁छात्रों	-2072
▁नीचे	-2073
▁plant	-2074
▁method	-2075
▁feel	-2076
oid	-2077
▁व्याप	-2078
ories	-2079
▁सेवा	-2080
▁means	-2081
▁current	-2082
▁On	-2083
▁नियंत्र	-2084
▁_	-2085
िड	-2086
lished	-2087
ंटी	-2088
▁family	-2089
▁हैः	-2090
▁माम	-2091
▁affect	-2092
here	-2093
▁econom	-2094
कर्ताओं	-2095
▁fore	-2096
▁langu	-2097
ified	-2098
ards	-2099
▁occur	-2100
धिक	-2101
▁mark	-2102
▁happ	-2103
ुओं	-2104
use	-2105
man	-2106
ांत	-2107
ern	-2108
▁वाय	-2109
िष्ट	-2110
टन	-2111
झे	-2112
ians	-2113
ological	-2114
az	-2115
▁अर्थ	-2116
▁हों	-2117
▁श्र	-2118
▁leg	-2119
▁कृ	-2120
▁desc	-2121
▁second	-2122
▁cal	-2123
ंश	-2124
▁possible	-2125
atic	-2126
ider	-2127
hor	-2128
हित	-2129
▁par	-2130
▁oper	-2131
▁ele	-2132
▁group	-2133
▁सामग्री	-2134
▁mil	-2135
▁Le	-2136
▁indu	-2137
▁योग	-2138
श्व	-2139
▁शहर	-2140
▁bus	-2141
icle	-2142
सन	-2143
▁Col	-2144
ples	-2145
▁addition	-2146
ाँकि	-2147
▁perform	-2148
▁fin	-2149
▁things	-2150
▁invol	-2151
▁several	-2152
▁भर	-2153
▁major	-2154
▁Te	-2155
▁मानव	-2156
▁mean	-2157
▁near	-2158
ब्ल्यू	-2159
▁Q	-2160
▁बर्	-2161
▁treatment	-2162
▁order	-2163
▁war	-2164
ug	-2165
▁wee	-2166
ision	-2167
▁दवा	-2168
कृतिक	-2169
▁infl	-2170
ocus	-2171
▁वर्षों	-2172
▁मुख	-2173
▁hig	-2174
▁say	-2175
▁prevent	-2176
▁अमेरिकी	-2177
▁घर	-2178
▁14	-2179
ograph	-2180
▁particular	-2181
▁cost	-2182
चान	-2183
▁अग	-2184
ained	-2185
to	-2186
▁अनुसार	-2187
▁ढ	-2188
▁Com	-2189
view	-2190
▁,	-2191
▁दक्षि	-2192
,"	-2193
▁उपचार	-2194
▁areas	-2195
▁कोशिका	-2196
▁हालाँकि	-2197
जू	-2198
▁पूरी	-2199
▁कान	-2200
व्य	-2201
▁यहाँ	-2202
▁दूर	-2203
▁mar	-2204
▁कार्	-2205
▁species	-2206
amp	-2207
ission	-2208
ote	-2209
▁government	-2210
ुट	-2211
▁open	-2212
ots	-2213
▁क्ल	-2214
ention	-2215
aper	-2216
▁उत्पादन	-2217
▁देते	-2218
▁रोक	-2219
▁अभी	-2220
सं	-2221
▁available	-2222
cle	-2223
ांस	-2224
िको	-2225
▁United	-2226
स्थित	-2227
धे	-2228
▁period	-2229
वेश	-2230
ँच	-2231
▁बेह	-2232
शील	-2233
▁times	-2234
▁access	-2235
▁One	-2236
▁creat	-2237
▁रक्त	-2238
ator	-2239
▁With	-2240
▁ter	-2241
▁सुन	-2242
▁En	-2243
ends	-2244
▁think	-2245
▁ते	-2246
▁मज	-2247
ार्व	-2248
▁unt	-2249
▁list	-2250
▁others	-2251
ेस	-2252
▁आकार	-2253
रीर	-2254
्वी	-2255
▁Some	-2256
▁13	-2257
cing	-2258
ogn	-2259
▁prom	-2260
ik	-2261
▁head	-2262
▁All	-2263
ाओं	-2264
▁law	-2265
▁problem	-2266
▁संके	-2267
▁संयुक्त	-2268
ंसर	-2269
--------	-2270
▁problems	-2271
par	-2272
ूस	-2273
▁free	-2274
ियर	-2275
osp	-2276
▁month	-2277
ling	-2278
▁against	-2279
▁चि	-2280
▁वाला	-2281
▁वर्त	-2282
▁since	-2283
्त	-2284
▁परिवर्तन	-2285
▁क्षेत्रों	-2286
▁मुख्य	-2287
▁impact	-2288
▁बढ़ा	-2289
▁hard	-2290
▁flow	-2291
▁1.	-2292
▁खाद	-2293
त्ति	-2294
▁lim	-2295
र्न	-2296
▁el	-2297
▁run	-2298
▁पिछ	-2299
▁हमें	-2300
▁करे	-2301
▁press	-2302
▁signific	-2303
▁जबकि	-2304
▁शरीर	-2305
▁संद	-2306
▁age	-2307
ina	-2308
▁(2	-2309
▁तब	-2310
▁based	-2311
▁अला	-2312
▁स्पष्ट	-2313
सान	-2314
▁type	-2315
ones	-2316
▁book	-2317
▁levels	-2318
▁Wor	-2319
▁country	-2320
▁amount	-2321
▁पौ	-2322
//	-2323
▁orig	-2324
imes	-2325
▁परिवार	-2326
ames	-2327
▁संबंधित	-2328
▁conn	-2329
sc	-2330
▁fac	-2331
▁पदार्थ	-2332
हाय	-2333
▁non	-2334
▁कैंसर	-2335
ortun	-2336
▁name	-2337
▁बिना	-2338
▁focus	-2339
▁come	-2340
▁प्रभावित	-2341
▁following	-2342
▁100	-2343
ilar	-2344
▁making	-2345
rist	-2346
▁comput	-2347
▁put	-2348
▁cond	-2349
टा	-2350
idence	-2351
▁अपना	-2352
▁गतिविध	-2353
▁post	-2354
▁National	-2355
▁natural	-2356
10	-2357
▁दें	-2358
▁Cent	-2359
लर	-2360
▁ताकि	-2361
▁फै	-2362
▁मुझे	-2363
ething	-2364
र्ष	-2365
ane	-2366
क्षम	-2367
▁हू	-2368
▁पत्र	-2369
▁Comm	-2370
वास	-2371
tt	-2372
▁bir	-2373
तना	-2374
▁cells	-2375
▁मी	-2376
ances	-2377
▁young	-2378
▁दु	-2379
▁संस्	-2380
urop	-2381
ंबर	-2382
▁four	-2383
▁heart	-2384
▁युद्ध	-2385
ended	-2386
लब्	-2387
▁बाहर	-2388
ring	-2389
ptoms	-2390
▁del	-2391
ियोजना	-2392
▁तकनी	-2393
▁technology	-2394
▁दर	-2395
▁ट्र	-2396
▁men	-2397
▁bi	-2398
▁struct	-2399
▁रिप	-2400
▁sw	-2401
▁तैय	-2402
▁certain	-2403
▁स्थाप	-2404
▁object	-2405
though	-2406
▁प्रजा	-2407
▁indust	-2408
▁सीख	-2409
sy	-2410
ope	-2411
▁शुरुआ	-2412
▁fre	-2413
▁परियोजना	-2414
icult	-2415
▁among	-2416
▁intern	-2417
▁उपलब्	-2418
oint	-2419
▁create	-2420
कृति	-2421
▁भोजन	-2422
be	-2423
▁टे	-2424
▁दश	-2425
▁Or	-2426
elf	-2427
ole	-2428
uture	-2429
▁सहाय	-2430
कर्ष	-2431
▁संभावना	-2432
alk	-2433
ॉड	-2434
▁50	-2435
▁Z	-2436
▁likely	-2437
▁little	-2438
-2	-2439
ably	-2440
▁researc	-2441
▁समर्थ	-2442
▁local	-2443
une	-2444
ांकि	-2445
▁198	-2446
▁States	-2447
साध	-2448
ायद	-2449
िता	-2450
▁पर्यावरण	-2451
▁gr	-2452
▁rece	-2453
ploy	-2454
▁lab	-2455
ww	-2456
ालन	-2457
्रिया	-2458
▁आगे	-2459
▁case	-2460
▁education	-2461
ooks	-2462
▁डब्ल्यू	-2463
▁चर्	-2464
▁सुरक्षा	-2465
urther	-2466
▁लाभ	-2467
मति	-2468
▁success	-2469
▁चु	-2470
▁due	-2471
▁cancer	-2472
▁By	-2473
▁teac	-2474
▁प्रतिक	-2475
▁Ear	-2476
▁something	-2477
▁प्रयोग	-2478
▁आधार	-2479
▁view	-2480
▁वर्तमान	-2481
▁usually	-2482
▁mult	-2483
▁short	-2484
▁दृष्ट	-2485
ication	-2486
▁vol	-2487
▁योजना	-2488
▁fil	-2489
port	-2490
▁बु	-2491
▁क्षम	-2492
ल्ड	-2493
ised	-2494
▁let	-2495
eg	-2496
▁Bl	-2497
्ला	-2498
▁जिससे	-2499
ression	-2500
▁turn	-2501
ret	-2502
▁ey	-2503
▁बड़ी	-2504
work	-2505
ides	-2506
ately	-2507
▁पहचान	-2508
://	-2509
▁हैंः	-2510
▁invest	-2511
▁far	-2512
▁खाद्य	-2513
बल	-2514
▁et	-2515
▁गुण	-2516
▁संसाध	-2517
▁कौ	-2518
▁parent	-2519
▁language	-2520
▁today	-2521
yd	-2522
द्योग	-2523
▁अच्छी	-2524
▁behav	-2525
▁US	-2526
▁vir	-2527
ggest	-2528
▁function	-2529
▁डे	-2530
▁पाया	-2531
br	-2532
▁वृद्ध	-2533
▁शिक्षा	-2534
atory	-2535
▁देखें	-2536
▁शै	-2537
▁space	-2538
▁course	-2539
▁systems	-2540
राब	-2541
▁why	-2542
▁उनका	-2543
यास	-2544
ape	-2545
▁increase	-2546
ending	-2547
ox	-2548
urope	-2549
▁स्रो	-2550
▁कमी	-2551
▁आज	-2552
▁temper	-2553
▁works	-2554
▁फ्र	-2555
▁Af	-2556
▁गण	-2557
ead	-2558
agement	-2559
over	-2560
▁consum	-2561
▁dam	-2562
▁profess	-2563
▁significant	-2564
▁million	-2565
ंदर	-2566
▁along	-2567
▁प्रयास	-2568
▁until	-2569
oad	-2570
▁अच्छा	-2571
▁enc	-2572
▁associ	-2573
▁bro	-2574
▁days	-2575
▁Inst	-2576
विष	-2577
▁past	-2578
ured	-2579
ledge	-2580
▁होना	-2581
म्र	-2582
▁खु	-2583
▁determ	-2584
ाषा	-2585
▁हवा	-2586
face	-2587
▁effective	-2588
hem	-2589
▁always	-2590
▁मि	-2591
▁रिपोर्ट	-2592
▁comb	-2593
स्क	-2594
▁अंग	-2595
▁brain	-2596
▁try	-2597
▁उसे	-2598
मित	-2599
▁needs	-2600
मन	-2601
▁Dr	-2602
30	-2603
▁rad	-2604
▁जहाँ	-2605
▁cir	-2606
गत	-2607
▁That	-2608
▁वेब	-2609
▁सुधार	-2610
कर्ता	-2611
▁suggest	-2612
▁बेहतर	-2613
ecially	-2614
▁बच	-2615
▁team	-2616
ours	-2617
▁चित्र	-2618
▁community	-2619
▁विस्त	-2620
aps	-2621
▁सद	-2622
▁नई	-2623
▁निर्धारित	-2624
▁उसके	-2625
▁Med	-2626
▁experience	-2627
▁dra	-2628
▁While	-2629
▁rele	-2630
▁छोड़	-2631
िश्	-2632
▁future	-2633
▁खा	-2634
▁उपलब्ध	-2635
▁रखने	-2636
▁difficult	-2637
aster	-2638
▁plants	-2639
तौर	-2640
लेख	-2641
▁गर्म	-2642
▁0	-2643
olution	-2644
शा	-2645
▁हालांकि	-2646
▁फ़	-2647
▁words	-2648
▁मात्रा	-2649
▁give	-2650
▁improve	-2651
▁specific	-2652
▁results	-2653
▁symptoms	-2654
▁tool	-2655
ड़ने	-2656
obal	-2657
तम	-2658
▁शी	-2659
▁जांच	-2660
ged	-2661
ators	-2662
▁God	-2663
▁working	-2664
▁सत	-2665
▁next	-2666
▁applic	-2667
▁Europe	-2668
▁across	-2669
aken	-2670
▁पूरा	-2671
▁toget	-2672
▁together	-2673
▁प्रबंध	-2674
▁given	-2675
सि	-2676
▁उत्तर	-2677
▁25	-2678
▁वृद्धि	-2679
▁डिज	-2680
▁ways	-2681
▁later	-2682
शल	-2683
▁खिला	-2684
▁death	-2685
resent	-2686
ither	-2687
जर	-2688
▁नियम	-2689
▁ill	-2690
ym	-2691
aves	-2692
▁हा	-2693
▁197	-2694
▁संग्रह	-2695
af	-2696
▁चला	-2697
especially	-2698
▁conditions	-2699
▁खेल	-2700
por	-2701
▁appear	-2702
मारी	-2703
atch	-2704
इस	-2705
▁seem	-2706
pect	-2707
भाल	-2708
rug	-2709
▁2.	-2710
ादी	-2711
▁special	-2712
▁अलावा	-2713
▁निष्	-2714
12	-2715
sw	-2716
▁begin	-2717
वाह	-2718
खिम	-2719
▁enough	-2720
▁cr	-2721
1.	-2722
vious	-2723
▁record	-2724
ember	-2725
▁जानवर	-2726
asing	-2727
▁chem	-2728
▁sing	-2729
▁कहते	-2730
▁higher	-2731
aring	-2732
ष्क	-2733
▁जोखिम	-2734
▁कला	-2735
▁क्षमता	-2736
ित्व	-2737
▁जाएगा	-2738
धान	-2739
▁वस्त	-2740
▁सक्षम	-2741
▁सीमा	-2742
जें	-2743
▁अनुमति	-2744
▁key	-2745
▁business	-2746
▁Im	-2747
▁आमतौर	-2748
▁various	-2749
▁बज	-2750
▁countries	-2751
ique	-2752
▁changes	-2753
वन	-2754
etic	-2755
not	-2756
▁पहुंच	-2757
▁side	-2758
▁अति	-2759
▁चार	-2760
▁पिछले	-2761
हन	-2762
▁require	-2763
put	-2764
▁similar	-2765
ored	-2766
▁मृत	-2767
▁संपर्क	-2768
एस	-2769
▁शोधकर्ताओं	-2770
▁भूमि	-2771
▁शक्ति	-2772
ंधान	-2773
▁line	-2774
▁संकेत	-2775
क्टर	-2776
▁पृष्ठ	-2777
ried	-2778
▁complete	-2779
▁मत	-2780
idd	-2781
▁er	-2782
▁जारी	-2783
▁types	-2784
▁ऊपर	-2785
cul	-2786
ned	-2787
▁196	-2788
▁mov	-2789
▁सरकार	-2790
▁strong	-2791
▁away	-2792
▁संक्रम	-2793
बर्	-2794
aces	-2795
▁अनुसंधान	-2796
▁dig	-2797
जों	-2798
विष्य	-2799
▁obs	-2800
▁discuss	-2801
ilities	-2802
inking	-2803
oot	-2804
▁colle	-2805
orts	-2806
▁लिख	-2807
ruction	-2808
तः	-2809
जिक	-2810
▁Afric	-2811
▁पक्ष	-2812
▁gre	-2813
▁cy	-2814
▁above	-2815
रोध	-2816
▁तंत्र	-2817
ंभ	-2818
▁मार्ग	-2819
▁मजबू	-2820
ode	-2821
▁especially	-2822
▁Stud	-2823
▁big	-2824
▁step	-2825
▁प्रतिक्रिया	-2826
app	-2827
▁patients	-2828
▁sens	-2829
▁मिश	-2830
▁net	-2831
▁author	-2832
▁clear	-2833
▁protect	-2834
▁kind	-2835
▁sure	-2836
लन	-2837
aining	-2838
▁भविष्य	-2839
▁(19	-2840
▁character	-2841
__	-2842
iting	-2843
pr	-2844
▁संस्थ	-2845
▁going	-2846
▁makes	-2847
▁crit	-2848
▁full	-2849
omes	-2850
▁least	-2851
aching	-2852
प्ता	-2853
▁researchers	-2854
▁Fr	-2855
्यु	-2856
कट	-2857
▁महिलाओं	-2858
ray	-2859
▁opt	-2860
▁प्राकृतिक	-2861
▁आय	-2862
▁science	-2863
तरी	-2864
ateg	-2865
▁century	-2866
ribut	-2867
▁effects	-2868
▁nut	-2869
most	-2870
oney	-2871
ilt	-2872
ैक	-2873
▁Christ	-2874
amm	-2875
▁Resear	-2876
▁chall	-2877
▁population	-2878
▁बनाए	-2879
▁skills	-2880
एक	-2881
▁necess	-2882
▁लेने	-2883
हरी	-2884
▁होगी	-2885
▁सूची	-2886
▁मॉड	-2887
▁पृथ	-2888
▁लिया	-2889
▁respons	-2890
▁lot	-2891
डियो	-2892
▁paper	-2893
thing	-2894
▁तैयार	-2895
▁व्यापक	-2896
▁z	-2897
▁2012	-2898
▁polit	-2899
▁After	-2900
acc	-2901
▁सार्व	-2902
▁दर्श	-2903
▁wr	-2904
तंत्र	-2905
स्य	-2906
▁अनुमान	-2907
▁उद्	-2908
▁चुन	-2909
उन	-2910
ेड	-2911
▁exist	-2912
iation	-2913
▁live	-2914
ler	-2915
▁दक्षिण	-2916
hing	-2917
ires	-2918
▁शुरुआत	-2919
▁Health	-2920
ormal	-2921
▁physical	-2922
▁समर्थन	-2923
ाइल	-2924
बा	-2925
side	-2926
▁describ	-2927
ables	-2928
▁कठ	-2929
▁story	-2930
िस्ट	-2931
▁mot	-2932
▁पत्	-2933
▁हिस्सा	-2934
▁शायद	-2935
oph	-2936
▁left	-2937
▁पहली	-2938
tal	-2939
▁Do	-2940
isc	-2941
▁गर्	-2942
ीक	-2943
▁ens	-2944
acy	-2945
bon	-2946
▁ऑफ	-2947
▁lower	-2948
▁never	-2949
of	-2950
selves	-2951
leep	-2952
11	-2953
्ड	-2954
▁तरीके	-2955
ysis	-2956
▁cases	-2957
mit	-2958
ument	-2959
▁देखा	-2960
atures	-2961
min	-2962
▁Brit	-2963
▁मही	-2964
duct	-2965
▁prim	-2966
chie	-2967
▁संदर्भ	-2968
▁term	-2969
▁प्रार	-2970
oring	-2971
▁sal	-2972
ंकन	-2973
बन	-2974
▁however	-2975
▁English	-2976
म्मी	-2977
▁गं	-2978
▁लगता	-2979
▁दशक	-2980
lement	-2981
▁having	-2982
▁climate	-2983
र्स	-2984
ung	-2985
▁reduce	-2986
▁अधिकार	-2987
िश्चित	-2988
▁range	-2989
▁खुद	-2990
▁activities	-2991
▁गो	-2992
alf	-2993
▁व्यवहार	-2994
▁कक्षा	-2995
म्मीद	-2996
्मे	-2997
▁sum	-2998
▁World	-2999
▁tru	-3000
▁Ab	-3001
▁wind	-3002
स्ति	-3003
pos	-3004
▁वर्ण	-3005
▁text	-3006
▁below	-3007
▁पड़	-3008
ohn	-3009
तिम	-3010
ware	-3011
जूद	-3012
▁तौर	-3013
ready	-3014
▁सके	-3015
▁quality	-3016
▁पृथ्वी	-3017
▁loss	-3018
▁really	-3019
ipp	-3020
वायु	-3021
ooking	-3022
▁role	-3023
▁mind	-3024
▁ताप	-3025
▁उम्मीद	-3026
▁करेंगे	-3027
▁जिसका	-3028
स्वी	-3029
वीं	-3030
िकोण	-3031
eds	-3032
▁account	-3033
▁whether	-3034
▁She	-3035
▁knowledge	-3036
icro	-3037
aut	-3038
▁consider	-3039
ेशन	-3040
नेट	-3041
▁वन	-3042
▁studies	-3043
▁products	-3044
यह	-3045
▁resources	-3046
्यास	-3047
▁+	-3048
▁स्थानीय	-3049
hern	-3050
ोम	-3051
▁growth	-3052
▁बड़ा	-3053
▁phot	-3054
भीर	-3055
▁194	-3056
▁मछ	-3057
▁activity	-3058
▁जिन्हें	-3059
ट्ट	-3060
▁सैन	-3061
nal	-3062
▁करेगा	-3063
▁विशिष्ट	-3064
▁40	-3065
स्तिष्क	-3066
verage	-3067
नीय	-3068
▁समुदाय	-3069
▁Car	-3070
▁जैसा	-3071
▁subject	-3072
▁house	-3073
▁घटना	-3074
ौद्योग	-3075
▁माप	-3076
▁चाहते	-3077
▁Go	-3078
▁medical	-3079
▁city	-3080
▁अंतिम	-3081
▁questions	-3082
ott	-3083
3.	-3084
स्था	-3085
▁गंभीर	-3086
oura	-3087
▁pred	-3088
▁फ्ल	-3089
▁fund	-3090
▁ground	-3091
▁तट	-3092
▁प्रस्त	-3093
▁अंतरिक्ष	-3094
▁estab	-3095
let	-3096
▁Tr	-3097
▁skin	-3098
▁Ne	-3099
▁ठीक	-3100
▁concer	-3101
▁site	-3102
▁मिट	-3103
परी	-3104
▁already	-3105
▁भीतर	-3106
माजिक	-3107
जनिक	-3108
▁प्रौद्योग	-3109
▁soil	-3110
मर	-3111
▁नौ	-3112
▁इसकी	-3113
ery	-3114
▁value	-3115
ites	-3116
▁done	-3117
▁fall	-3118
ल्स	-3119
etimes	-3120
▁War	-3121
हम	-3122
▁पूरे	-3123
▁flu	-3124
ges	-3125
ंतर	-3126
अलग	-3127
बे	-3128
▁healthy	-3129
▁पैदा	-3130
▁बंद	-3131
overed	-3132
ूट	-3133
▁बल्	-3134
▁self	-3135
▁general	-3136
▁further	-3137
▁ask	-3138
▁oil	-3139
ream	-3140
▁production	-3141
▁potential	-3142
▁sun	-3143
▁24	-3144
▁महा	-3145
लैंड	-3146
▁recomm	-3147
▁प्रकाशित	-3148
▁according	-3149
▁pressure	-3150
▁देखभाल	-3151
▁relations	-3152
▁x	-3153
▁Gen	-3154
▁जलवायु	-3155
ips	-3156
▁cut	-3157
ोड	-3158
ुकसान	-3159
▁red	-3160
▁building	-3161
▁प्रदर्शन	-3162
▁developed	-3163
osis	-3164
1,	-3165
▁आन	-3166
▁याद	-3167
▁लक्षण	-3168
▁अनुभव	-3169
fact	-3170
▁Acc	-3171
▁seen	-3172
▁वास्तविक	-3173
▁नुकसान	-3174
▁eff	-3175
ोर्ड	-3176
▁particip	-3177
▁influ	-3178
▁संच	-3179
▁doct	-3180
हरा	-3181
प्ताह	-3182
▁close	-3183
▁question	-3184
विक	-3185
▁वाप	-3186
सत	-3187
▁word	-3188
▁achie	-3189
▁सार्वजनिक	-3190
▁reason	-3191
▁week	-3192
▁field	-3193
▁विश्ले	-3194
ley	-3195
▁यूर	-3196
▁रहने	-3197
▁source	-3198
▁Intern	-3199
▁पुनर्	-3200
▁मध्य	-3201
▁drug	-3202
▁model	-3203
▁मस्तिष्क	-3204
unt	-3205
▁Am	-3206
▁became	-3207
▁Cal	-3208
ird	-3209
▁दूसरे	-3210
▁काफी	-3211
▁ऐसे	-3212
▁उद्देश	-3213
▁polic	-3214
ae	-3215
▁ur	-3216
rams	-3217
▁toward	-3218
▁issues	-3219
जै	-3220
▁ज्ञ	-3221
ency	-3222
फे	-3223
oman	-3224
▁गैर	-3225
▁विषय	-3226
ee	-3227
▁bat	-3228
शु	-3229
▁बनाया	-3230
apt	-3231
istic	-3232
amin	-3233
▁John	-3234
ety	-3235
ट्र	-3236
2.	-3237
ibility	-3238
लाइन	-3239
▁simple	-3240
▁यात्रा	-3241
▁article	-3242
▁कंप्यू	-3243
▁deg	-3244
▁लंबे	-3245
शाला	-3246
▁सामाजिक	-3247
▁Cont	-3248
▁संरचना	-3249
▁surface	-3250
▁मृत्यु	-3251
▁स्थापित	-3252
ठा	-3253
by	-3254
संद	-3255
▁तेजी	-3256
▁situ	-3257
▁दिखाई	-3258
▁groups	-3259
ann	-3260
ands	-3261
▁आध	-3262
स्ट्र	-3263
▁Ge	-3264
▁भे	-3265
ification	-3266
edi	-3267
▁dog	-3268
पास	-3269
▁Many	-3270
▁size	-3271
▁once	-3272
▁रखा	-3273
▁event	-3274
esc	-3275
▁created	-3276
▁five	-3277
▁opportun	-3278
AS	-3279
ात्मक	-3280
▁प्रोट	-3281
ening	-3282
▁recogn	-3283
▁represent	-3284
लता	-3285
ुम	-3286
धारण	-3287
▁दृष्टिकोण	-3288
▁tell	-3289
▁Earth	-3290
▁diet	-3291
▁address	-3292
▁Germ	-3293
▁tradition	-3294
▁animals	-3295
▁circ	-3296
for	-3297
▁mass	-3298
augh	-3299
▁जल्	-3300
▁introdu	-3301
▁नव	-3302
▁quick	-3303
▁सिद्ध	-3304
iple	-3305
▁त्व	-3306
ेप	-3307
▁employ	-3308
▁आपकी	-3309
▁weight	-3310
▁Ass	-3311
▁materials	-3312
▁white	-3313
▁खंड	-3314
▁आने	-3315
▁Mar	-3316
▁चे	-3317
▁South	-3318
5.	-3319
▁ब्ल	-3320
ications	-3321
▁stress	-3322
▁single	-3323
▁विश्लेषण	-3324
▁रि	-3325
▁ann	-3326
▁adult	-3327
▁answ	-3328
▁comes	-3329
▁पुरुष	-3330
▁rate	-3331
▁detail	-3332
त्ता	-3333
▁writing	-3334
ued	-3335
▁एंड	-3336
▁concept	-3337
urity	-3338
▁understanding	-3339
रिया	-3340
▁either	-3341
sych	-3342
▁student	-3343
▁fat	-3344
▁actually	-3345
▁engine	-3346
19	-3347
▁wide	-3348
▁ती	-3349
▁prob	-3350
▁लगाने	-3351
ेंस	-3352
▁condition	-3353
▁fri	-3354
▁collect	-3355
▁neg	-3356
▁exerc	-3357
▁पुस्तक	-3358
ivity	-3359
▁मिट्टी	-3360
▁जोड़	-3361
▁संभव	-3362
▁विकल्प	-3363
▁Pr	-3364
ृंख	-3365
ृंखला	-3366
▁North	-3367
▁डाल	-3368
▁green	-3369
▁init	-3370
▁ability	-3371
▁subst	-3372
▁global	-3373
▁संग	-3374
▁rather	-3375
▁America	-3376
aim	-3377
साय	-3378
▁अफ	-3379
▁वर्ग	-3380
▁बीमारी	-3381
ok	-3382
ival	-3383
ounds	-3384
ibr	-3385
याँ	-3386
बादी	-3387
▁तापमान	-3388
▁अगर	-3389
▁इसमें	-3390
▁stat	-3391
rel	-3392
▁पर्याप्त	-3393
▁उल्	-3394
erence	-3395
▁बजाय	-3396
4.	-3397
▁जीन	-3398
▁श्रृंखला	-3399
▁माइ	-3400
▁needed	-3401
ब्दी	-3402
▁हिस्से	-3403
▁published	-3404
▁practice	-3405
rect	-3406
▁शता	-3407
▁living	-3408
▁उत्तरी	-3409
▁fish	-3410
▁ली	-3411
▁Fl	-3412
▁नियंत्रण	-3413
▁avoid	-3414
ानों	-3415
ंज	-3416
▁taken	-3417
रि	-3418
roll	-3419
▁प्रती	-3420
):	-3421
▁पेश	-3422
ॉट	-3423
▁Dep	-3424
oose	-3425
▁meet	-3426
▁कहना	-3427
छे	-3428
ask	-3429
gest	-3430
idered	-3431
eter	-3432
▁खतर	-3433
निया	-3434
▁देखने	-3435
▁parts	-3436
▁provides	-3437
fficient	-3438
▁3.	-3439
oon	-3440
▁May	-3441
▁Pe	-3442
हत	-3443
▁अप्र	-3444
▁indic	-3445
▁सुरक्षित	-3446
▁माना	-3447
चित्र	-3448
▁abs	-3449
▁parents	-3450
ont	-3451
▁कंप्यूटर	-3452
▁market	-3453
▁स्वतंत्र	-3454
▁experien	-3455
ump	-3456
ensive	-3457
▁यूरोप	-3458
▁आबादी	-3459
▁offic	-3460
▁हाथ	-3461
reme	-3462
way	-3463
▁उम्र	-3464
▁पश्च	-3465
aging	-3466
▁hold	-3467
fer	-3468
क्ष्य	-3469
▁Your	-3470
▁भौ	-3471
▁black	-3472
▁सहयोग	-3473
▁सप्ताह	-3474
▁ver	-3475
वान	-3476
्यांकन	-3477
▁cho	-3478
िजली	-3479
▁Man	-3480
▁related	-3481
ेंगे	-3482
wh	-3483
ales	-3484
ample	-3485
▁coll	-3486
▁हमारी	-3487
▁मॉडल	-3488
▁मूल्य	-3489
ठन	-3490
दू	-3491
rict	-3492
like	-3493
ुव	-3494
▁सुनिश्चित	-3495
▁fail	-3496
▁Most	-3497
ारण	-3498
▁भाषा	-3499
▁gas	-3500
▁मौसम	-3501
3,	-3502
▁युवा	-3503
▁निम	-3504
▁sent	-3505
▁lay	-3506
नाव	-3507
▁computer	-3508
yn	-3509
▁बिल	-3510
▁famil	-3511
▁frequ	-3512
▁national	-3513
lying	-3514
▁जन्म	-3515
▁पक	-3516
▁soft	-3517
▁doc	-3518
▁associated	-3519
▁मोट	-3520
ule	-3521
▁considered	-3522
▁भार	-3523
गो	-3524
▁संक्रमण	-3525
▁विशेषज्ञ	-3526
iol	-3527
▁लागू	-3528
▁increased	-3529
onst	-3530
▁sleep	-3531
ison	-3532
▁संभावित	-3533
▁लै	-3534
▁शु	-3535
▁reading	-3536
▁whole	-3537
▁विभाग	-3538
▁सतह	-3539
▁idea	-3540
▁chemical	-3541
▁ग्रह	-3542
▁repl	-3543
▁सही	-3544
▁pay	-3545
ड़क	-3546
ging	-3547
▁हि	-3548
▁Here	-3549
वाल	-3550
▁evidence	-3551
▁शीर्ष	-3552
▁required	-3553
▁वापस	-3554
एन	-3555
▁सहायता	-3556
ंगल	-3557
▁बाल	-3558
▁clean	-3559
▁produce	-3560
▁फिल	-3561
ER	-3562
▁states	-3563
6.	-3564
▁II	-3565
न्न	-3566
वरी	-3567
▁Aust	-3568
क्सा	-3569
ंभिक	-3570
▁चलता	-3571
erve	-3572
▁Research	-3573
NA	-3574
ournal	-3575
▁themselves	-3576
▁प्रबंधन	-3577
rate	-3578
▁शताब्दी	-3579
ार्क	-3580
▁factors	-3581
▁माता	-3582
ाइड	-3583
▁ऐसी	-3584
सायन	-3585
val	-3586
8.	-3587
▁online	-3588
▁maint	-3589
ॉर्ड	-3590
▁cat	-3591
साइट	-3592
ivil	-3593
▁histor	-3594
▁More	-3595
वादी	-3596
▁management	-3597
ublic	-3598
acks	-3599
▁गैस	-3600
▁भूम	-3601
▁मूल्यांकन	-3602
▁समुद्र	-3603
▁observ	-3604
ores	-3605
दय	-3606
भा	-3607
▁अस	-3608
artment	-3609
▁port	-3610
▁समाप्त	-3611
▁घंट	-3612
vere	-3613
▁विस्तार	-3614
▁ऑन	-3615
light	-3616
utions	-3617
रो	-3618
▁entire	-3619
▁services	-3620
▁केंद्रित	-3621
▁पसंद	-3622
पिता	-3623
बद्ध	-3624
illed	-3625
▁अभि	-3626
▁months	-3627
▁complex	-3628
sh	-3629
▁job	-3630
साथ	-3631
ush	-3632
▁मार	-3633
▁बो	-3634
▁आग	-3635
mber	-3636
▁मजबूत	-3637
aced	-3638
▁Soc	-3639
ेम	-3640
-19	-3641
ney	-3642
utes	-3643
ystem	-3644
▁समी	-3645
दे	-3646
▁प्रारंभिक	-3647
▁शा	-3648
▁चरण	-3649
त्य	-3650
▁almost	-3651
▁members	-3652
▁money	-3653
▁vers	-3654
श्चित	-3655
▁Hist	-3656
▁relationship	-3657
▁2010	-3658
▁suff	-3659
▁nature	-3660
ply	-3661
▁No	-3662
भर	-3663
itute	-3664
▁la	-3665
▁संय	-3666
▁modern	-3667
▁थीं	-3668
oll	-3669
-3	-3670
aged	-3671
▁जानते	-3672
▁प्रौद्योगिकी	-3673
▁color	-3674
inter	-3675
▁return	-3676
▁कार्बन	-3677
▁Rep	-3678
▁School	-3679
▁घो	-3680
▁cannot	-3681
▁बल्कि	-3682
▁Pre	-3683
7.	-3684
▁)	-3685
रिक्त	-3686
▁बिजली	-3687
▁shows	-3688
▁stop	-3689
▁thought	-3690
▁benefits	-3691
▁Act	-3692
▁causes	-3693
▁संरक्षण	-3694
▁taking	-3695
abor	-3696
emic	-3697
▁measure	-3698
▁safe	-3699
rown	-3700
षि	-3701
eding	-3702
▁throughout	-3703
▁सोच	-3704
▁inj	-3705
▁dest	-3706
▁दिए	-3707
ेशा	-3708
based	-3709
▁easy	-3710
▁निश्चित	-3711
▁1,	-3712
2,	-3713
▁popular	-3714
astic	-3715
14	-3716
▁X	-3717
▁आपका	-3718
लब	-3719
org	-3720
जित	-3721
जैसे	-3722
तान	-3723
enn	-3724
▁arch	-3725
▁therap	-3726
ॉक	-3727
▁dom	-3728
▁heat	-3729
भू	-3730
▁Gu	-3731
▁एड	-3732
yl	-3733
ार्ड	-3734
▁कोशिकाओं	-3735
▁personal	-3736
▁hab	-3737
ai	-3738
था	-3739
▁अतिरिक्त	-3740
ections	-3741
ृदय	-3742
फ्ट	-3743
प्प	-3744
chan	-3745
▁fru	-3746
▁चौ	-3747
▁vide	-3748
▁half	-3749
ष्ट्रीय	-3750
▁economic	-3751
5,	-3752
yle	-3753
ब्र	-3754
▁पहला	-3755
▁react	-3756
▁approach	-3757
▁scientists	-3758
फ़	-3759
▁super	-3760
urs	-3761
▁ever	-3762
iam	-3763
▁emer	-3764
▁company	-3765
▁came	-3766
▁recent	-3767
▁hours	-3768
▁content	-3769
hib	-3770
▁प्रस्तुत	-3771
▁lives	-3772
▁helps	-3773
▁ge	-3774
▁डिजाइन	-3775
▁link	-3776
उंड	-3777
itud	-3778
▁काउ	-3779
ened	-3780
▁temperature	-3781
▁ब्रिट	-3782
uel	-3783
go	-3784
िक्स	-3785
▁assess	-3786
▁साझ	-3787
कभी	-3788
rated	-3789
▁necessary	-3790
▁नै	-3791
▁prote	-3792
▁industry	-3793
▁हमेशा	-3794
▁diagn	-3795
चि	-3796
▁contain	-3797
▁analysis	-3798
डा	-3799
▁path	-3800
▁लाल	-3801
▁पाठ्य	-3802
षित	-3803
epend	-3804
▁21	-3805
▁environmental	-3806
▁रिक	-3807
▁प्रशिक्ष	-3808
rad	-3809
▁निम्न	-3810
abet	-3811
▁जॉन	-3812
▁liter	-3813
स्टर	-3814
▁लोक	-3815
तनी	-3816
▁हृदय	-3817
▁farm	-3818
▁नम	-3819
▁built	-3820
▁break	-3821
erous	-3822
▁गल	-3823
▁fire	-3824
ze	-3825
▁training	-3826
▁poll	-3827
थमिक	-3828
▁schools	-3829
▁contact	-3830
ma	-3831
anced	-3832
▁अफ्री	-3833
ences	-3834
▁दर्द	-3835
▁Su	-3836
izing	-3837
iction	-3838
▁डॉलर	-3839
▁योग्य	-3840
▁caused	-3841
▁interact	-3842
▁wild	-3843
▁eat	-3844
▁bar	-3845
ising	-3846
▁According	-3847
▁Canad	-3848
▁Co	-3849
▁Em	-3850
और	-3851
▁भाव	-3852
urch	-3853
▁Although	-3854
▁tar	-3855
▁kids	-3856
▁रु	-3857
▁एक्स	-3858
icles	-3859
iddle	-3860
▁पीछे	-3861
▁spread	-3862
▁कट	-3863
▁increasing	-3864
▁उत्स	-3865
▁पुरा	-3866
▁cop	-3867
पन	-3868
▁विद	-3869
▁mach	-3870
▁prop	-3871
▁स्रोत	-3872
लेक्ट	-3873
▁longer	-3874
6,	-3875
▁संस्करण	-3876
▁region	-3877
▁regular	-3878
▁परिभ	-3879
▁conduct	-3880
▁includes	-3881
reng	-3882
▁60	-3883
▁लेकर	-3884
ूर	-3885
▁2009	-3886
▁प्रतिनि	-3887
aily	-3888
▁व्यक्तिगत	-3889
▁bur	-3890
▁itself	-3891
▁पौध	-3892
▁rights	-3893
▁जिनमें	-3894
reg	-3895
pro	-3896
uck	-3897
▁travel	-3898
▁मांस	-3899
▁designed	-3900
▁anc	-3901
8,	-3902
ches	-3903
▁देती	-3904
▁ut	-3905
▁प्राथमिक	-3906
▁चर्चा	-3907
▁htt	-3908
sequ	-3909
तीय	-3910
ese	-3911
स्वर	-3912
▁took	-3913
▁निर्देश	-3914
▁ste	-3915
▁Us	-3916
किल	-3917
▁i	-3918
ront	-3919
▁pattern	-3920
▁Fe	-3921
▁lif	-3922
ober	-3923
▁bacter	-3924
▁नदी	-3925
▁carbon	-3926
▁वजन	-3927
▁अवधि	-3928
▁पूर्ण	-3929
▁खिलाफ	-3930
▁began	-3931
▁2011	-3932
▁individuals	-3933
▁yet	-3934
▁0.	-3935
लेट	-3936
7,	-3937
▁relig	-3938
ows	-3939
▁स्वी	-3940
▁surv	-3941
▁foods	-3942
▁सहित	-3943
▁six	-3944
▁disord	-3945
ming	-3946
aving	-3947
▁इला	-3948
▁deb	-3949
▁उद्देश्य	-3950
▁2013	-3951
▁State	-3952
▁दिल	-3953
▁etc	-3954
▁arg	-3955
▁ज़	-3956
▁visit	-3957
▁Other	-3958
▁political	-3959
लाह	-3960
▁damage	-3961
▁meaning	-3962
्रिय	-3963
▁action	-3964
ufact	-3965
▁structure	-3966
लू	-3967
तक	-3968
तिहासिक	-3969
fully	-3970
▁उद्य	-3971
▁thing	-3972
▁""	-3973
▁priv	-3974
▁आसपास	-3975
▁behavior	-3976
▁His	-3977
lt	-3978
pid	-3979
hold	-3980
▁ast	-3981
स्वरूप	-3982
▁check	-3983
▁bring	-3984
ंशिक	-3985
onse	-3986
▁variety	-3987
ID	-3988
▁CO	-3989
▁तस्वी	-3990
▁कृषि	-3991
▁Per	-3992
▁तत्व	-3993
▁सुझ	-3994
▁परिणामस्वरूप	-3995
▁रखें	-3996
▁uses	-3997
▁मछली	-3998
▁positive	-3999
▁हूं	-4000
▁arr	-4001
▁जहां	-4002
▁समुद्री	-4003
▁कानून	-4004
▁matter	-4005
▁electric	-4006
▁App	-4007
ronic	-4008
▁मुद्	-4009
▁average	-4010
oor	-4011
gar	-4012
▁service	-4013
र्य	-4014
▁एंटी	-4015
▁ce	-4016
▁webs	-4017
▁2014	-4018
mon	-4019
▁बिंद	-4020
▁sense	-4021
▁समाचार	-4022
ules	-4023
▁Science	-4024
▁मील	-4025
▁previous	-4026
सूस	-4027
▁slow	-4028
खित	-4029
▁upon	-4030
▁छोटी	-4031
nces	-4032
स्त्र	-4033
▁वैज्ञानिकों	-4034
▁मैंने	-4035
▁जिम	-4036
▁separ	-4037
ume	-4038
▁लागत	-4039
शी	-4040
usion	-4041
▁प्रभावी	-4042
▁विवरण	-4043
▁देखते	-4044
▁लाख	-4045
डिया	-4046
▁आया	-4047
▁encoura	-4048
▁निष्कर्ष	-4049
▁भूमिका	-4050
▁मध	-4051
▁नेट	-4052
▁सिर	-4053
▁देशों	-4054
▁society	-4055
▁वय	-4056
▁कोशिश	-4057
60	-4058
▁York	-4059
तार	-4060
▁Of	-4061
▁स्वस्थ	-4062
▁शिक	-4063
▁doesn	-4064
▁fig	-4065
डर	-4066
तरा	-4067
80	-4068
▁जिन्होंने	-4069
▁Int	-4070
ils	-4071
▁pict	-4072
▁bal	-4073
▁identify	-4074
▁भावना	-4075
▁doing	-4076
कल	-4077
▁page	-4078
▁developing	-4079
lease	-4080
▁British	-4081
▁लु	-4082
ोब	-4083
itation	-4084
room	-4085
▁deep	-4086
▁धन	-4087
▁compan	-4088
▁Me	-4089
▁sat	-4090
टिल	-4091
▁face	-4092
▁इससे	-4093
vey	-4094
▁total	-4095
▁image	-4096
▁From	-4097
▁challeng	-4098
▁issue	-4099
राव	-4100
▁Qu	-4101
▁methods	-4102
iment	-4103
▁डॉक्टर	-4104
13	-4105
▁खो	-4106
▁सीखने	-4107
hood	-4108
▁sust	-4109
▁simply	-4110
▁love	-4111
itary	-4112
duc	-4113
▁पारि	-4114
▁programs	-4115
▁bab	-4116
▁जिसके	-4117
▁अंग्रे	-4118
▁Not	-4119
▁नया	-4120
जीन	-4121
ES	-4122
▁active	-4123
icine	-4124
olic	-4125
▁ensure	-4126
ूर्ति	-4127
▁normal	-4128
elling	-4129
inary	-4130
्राष्ट्रीय	-4131
▁teachers	-4132
▁जीवित	-4133
▁लेखक	-4134
▁mor	-4135
▁streng	-4136
ropri	-4137
istics	-4138
ासन	-4139
▁getting	-4140
▁दुर्	-4141
ades	-4142
▁महसूस	-4143
▁मामले	-4144
estern	-4145
▁तरीका	-4146
▁growing	-4147
▁ऑनलाइन	-4148
ल्फ	-4149
ीप	-4150
ाइप	-4151
▁India	-4152
्रेड	-4153
▁sometimes	-4154
▁heav	-4155
▁Ke	-4156
हरे	-4157
ulations	-4158
lands	-4159
asc	-4160
▁terms	-4161
▁forest	-4162
▁conc	-4163
▁Cons	-4164
▁सौ	-4165
▁remov	-4166
apan	-4167
▁sex	-4168
▁exc	-4169
ript	-4170
▁होंगे	-4171
▁...	-4172
▁princ	-4173
----------------	-4174
▁तेल	-4175
▁वायर	-4176
दियों	-4177
▁टीम	-4178
▁पालन	-4179
ricult	-4180
aff	-4181
फेसर	-4182
▁standard	-4183
▁जानवरों	-4184
▁share	-4185
▁खरी	-4186
▁गतिविधि	-4187
▁फी	-4188
▁रोगियों	-4189
▁संस्थान	-4190
ितीय	-4191
धी	-4192
जार	-4193
▁4.	-4194
िना	-4195
▁sources	-4196
▁shown	-4197
lex	-4198
▁night	-4199
जीव	-4200
ूम	-4201
ederal	-4202
▁threat	-4203
▁compl	-4204
▁music	-4205
▁ec	-4206
▁Our	-4207
ंडल	-4208
▁provided	-4209
▁अंतर्राष्ट्रीय	-4210
aches	-4211
▁regard	-4212
ched	-4213
पान	-4214
▁Rec	-4215
▁essential	-4216
▁Lear	-4217
▁tend	-4218
▁basic	-4219
amed	-4220
▁numbers	-4221
जनक	-4222
▁fem	-4223
▁written	-4224
▁Now	-4225
▁प्रोफेसर	-4226
▁serious	-4227
▁micro	-4228
▁target	-4229
istance	-4230
▁वेबसाइट	-4231
▁prec	-4232
▁earth	-4233
▁vari	-4234
AT	-4235
▁मतलब	-4236
▁feet	-4237
▁ऐतिहासिक	-4238
▁emot	-4239
▁महीने	-4240
▁draw	-4241
▁जग	-4242
▁उत्पन्न	-4243
▁believe	-4244
▁थो	-4245
▁आहार	-4246
▁led	-4247
▁सुझाव	-4248
imately	-4249
empt	-4250
▁पदार्थों	-4251
▁इंटर	-4252
▁someone	-4253
▁wood	-4254
het	-4255
▁virus	-4256
▁Inf	-4257
AR	-4258
▁outside	-4259
irm	-4260
▁Austral	-4261
▁द्वीप	-4262
▁involved	-4263
▁त्वचा	-4264
▁review	-4265
▁चिं	-4266
▁प्रयोगशाला	-4267
▁safety	-4268
▁true	-4269
▁extreme	-4270
▁टि	-4271
▁aware	-4272
issions	-4273
▁जटिल	-4274
ns	-4275
▁नमू	-4276
▁print	-4277
▁इलेक्ट	-4278
rior	-4279
▁आर्थ	-4280
▁looking	-4281
aling	-4282
▁पाठ्यक्रम	-4283
माने	-4284
▁कहानी	-4285
▁events	-4286
▁Gl	-4287
▁/	-4288
▁दर्शा	-4289
ises	-4290
▁प्रजातियों	-4291
▁कॉम	-4292
ene	-4293
▁निर्ण	-4294
▁बचा	-4295
ners	-4296
ंडे	-4297
▁Child	-4298
▁compon	-4299
40	-4300
▁सदस्य	-4301
▁प्रजाति	-4302
▁नियंत्रित	-4303
▁takes	-4304
▁manufact	-4305
▁vacc	-4306
verse	-4307
▁greater	-4308
▁mechan	-4309
umb	-4310
▁काउंटी	-4311
▁सिद्धांत	-4312
ength	-4313
▁veget	-4314
िमी	-4315
र्ट	-4316
itution	-4317
▁--	-4318
▁Count	-4319
▁संसाधन	-4320
रम	-4321
▁rev	-4322
9.	-4323
minist	-4324
atives	-4325
15	-4326
लिखित	-4327
▁position	-4328
pose	-4329
▁बर्फ	-4330
▁जैसी	-4331
▁रॉ	-4332
हाँ	-4333
ालय	-4334
uge	-4335
ोजित	-4336
rast	-4337
▁squ	-4338
▁eye	-4339
▁Sec	-4340
▁रिकॉर्ड	-4341
▁छवि	-4342
ंधन	-4343
▁integ	-4344
ems	-4345
▁gard	-4346
▁continue	-4347
▁भौतिक	-4348
▁सक्रिय	-4349
▁कप	-4350
▁animal	-4351
▁attention	-4352
▁patient	-4353
▁claim	-4354
▁Center	-4355
▁डिग्री	-4356
▁warm	-4357
ैल	-4358
ंथ	-4359
▁रहते	-4360
rought	-4361
new	-4362
▁poor	-4363
▁displ	-4364
▁Par	-4365
▁आत्	-4366
दम	-4367
श्विक	-4368
क्षेप	-4369
गन	-4370
▁Japan	-4371
▁cust	-4372
उस	-4373
ervation	-4374
▁व्याख्या	-4375
▁प्रवेश	-4376
my	-4377
तने	-4378
▁harm	-4379
oles	-4380
▁Ed	-4381
▁diseases	-4382
▁response	-4383
▁दिश	-4384
्याय	-4385
▁Min	-4386
ials	-4387
▁Bec	-4388
▁ago	-4389
▁योगदान	-4390
्राम	-4391
▁tools	-4392
▁जगह	-4393
गल	-4394
We	-4395
▁सित	-4396
▁camp	-4397
▁org	-4398
▁smo	-4399
▁media	-4400
▁implement	-4401
▁आसान	-4402
▁particularly	-4403
itor	-4404
▁विल	-4405
▁culture	-4406
▁tree	-4407
aries	-4408
▁दृश्य	-4409
▁वित्	-4410
▁daily	-4411
शोध	-4412
▁allows	-4413
alu	-4414
▁Part	-4415
▁easily	-4416
▁ox	-4417
▁पौधों	-4418
▁financ	-4419
▁Educ	-4420
▁ideas	-4421
ground	-4422
▁Pres	-4423
▁अत्य	-4424
raft	-4425
▁तकनीक	-4426
▁essay	-4427
ूक	-4428
ष्टि	-4429
▁accept	-4430
arily	-4431
abetes	-4432
▁खराब	-4433
▁Read	-4434
▁compet	-4435
▁forms	-4436
Th	-4437
▁inside	-4438
know	-4439
▁निर्भर	-4440
▁doctor	-4441
▁origin	-4442
टने	-4443
▁महान	-4444
erg	-4445
▁movement	-4446
ban	-4447
▁अभ्यास	-4448
परीत	-4449
▁टुक	-4450
कीय	-4451
▁bra	-4452
▁मामलों	-4453
▁relative	-4454
▁psych	-4455
▁correct	-4456
▁magn	-4457
▁viol	-4458
वत्ता	-4459
ड्	-4460
▁prep	-4461
वेद	-4462
▁solar	-4463
▁दिनों	-4464
▁गिर	-4465
▁dry	-4466
▁पाए	-4467
▁lack	-4468
ography	-4469
▁produced	-4470
▁hyd	-4471
▁mess	-4472
lies	-4473
▁कुल	-4474
▁Ac	-4475
▁घंटे	-4476
▁मौजूद	-4477
▁धी	-4478
रब	-4479
ctions	-4480
▁विपरीत	-4481
▁विभा	-4482
▁trees	-4483
▁books	-4484
▁समीक्षा	-4485
▁offer	-4486
भाग	-4487
▁quickly	-4488
▁First	-4489
▁log	-4490
▁मिला	-4491
▁शब्दों	-4492
▁Comp	-4493
ls	-4494
mb	-4495
▁mental	-4496
▁ड्र	-4497
▁series	-4498
▁determine	-4499
▁probably	-4500
ister	-4501
ॉर्क	-4502
▁dang	-4503
ित्स	-4504
▁write	-4505
यं	-4506
ुनिक	-4507
▁added	-4508
▁late	-4509
िकों	-4510
▁गुणवत्ता	-4511
▁humans	-4512
▁select	-4513
▁अल	-4514
▁original	-4515
▁इंग	-4516
▁lat	-4517
ौती	-4518
ights	-4519
16	-4520
▁जवा	-4521
▁साझा	-4522
▁tur	-4523
▁unique	-4524
▁कौशल	-4525
लिफ	-4526
▁defin	-4527
▁वाह	-4528
▁Will	-4529
▁started	-4530
▁इंजीन	-4531
▁generally	-4532
▁अवसर	-4533
▁refer	-4534
▁संगी	-4535
▁answer	-4536
▁वैश्विक	-4537
▁sea	-4538
▁communities	-4539
▁ज्ञान	-4540
rial	-4541
inks	-4542
▁ir	-4543
▁अंदर	-4544
▁अस्प	-4545
▁During	-4546
bo	-4547
टीक	-4548
rench	-4549
▁समाज	-4550
▁हमने	-4551
▁लाइ	-4552
▁bit	-4553
▁प्रस	-4554
त्सा	-4555
▁tiss	-4556
▁exercise	-4557
▁अंग्रेजी	-4558
▁आयु	-4559
ृत्ति	-4560
▁पेट	-4561
▁King	-4562
▁बस	-4563
▁cover	-4564
▁मनुष	-4565
hest	-4566
overy	-4567
gn	-4568
iency	-4569
eration	-4570
▁emb	-4571
पूर्व	-4572
▁पोस्ट	-4573
▁traditional	-4574
▁इलाज	-4575
ोर्निया	-4576
▁रोकने	-4577
cean	-4578
▁समस्याओं	-4579
ंपरिक	-4580
ancy	-4581
▁ट्यू	-4582
dom	-4583
▁Jew	-4584
▁अत्यधिक	-4585
ारीरिक	-4586
▁companies	-4587
▁साइ	-4588
▁दौ	-4589
set	-4590
imin	-4591
useum	-4592
▁Tw	-4593
▁193	-4594
▁Institute	-4595
▁vit	-4596
▁आदि	-4597
▁संगीत	-4598
▁उपकरणों	-4599
नाश	-4600
imum	-4601
कड़ी	-4602
▁demonst	-4603
ellow	-4604
▁Why	-4605
▁सामने	-4606
▁स्वयं	-4607
▁प्रतिनिध	-4608
▁Har	-4609
nov	-4610
▁सलाह	-4611
▁My	-4612
क्सी	-4613
▁Even	-4614
▁primary	-4615
▁reported	-4616
▁प्रेर	-4617
▁achieve	-4618
▁sound	-4619
आई	-4620
▁network	-4621
▁धर्म	-4622
▁स्थितियों	-4623
▁China	-4624
वै	-4625
▁feed	-4626
वर्क	-4627
▁खतरा	-4628
▁quite	-4629
▁आर्थिक	-4630
▁80	-4631
▁scientific	-4632
▁रेखा	-4633
ॉग	-4634
▁त्र	-4635
▁severe	-4636
▁wall	-4637
▁ap	-4638
सल	-4639
▁टिप्प	-4640
▁जवाब	-4641
▁infection	-4642
hel	-4643
▁रक्षा	-4644
▁तस्वीर	-4645
▁instead	-4646
▁difference	-4647
asons	-4648
▁पशु	-4649
▁hy	-4650
ties	-4651
▁दर्	-4652
▁सटीक	-4653
itis	-4654
▁जिम्मे	-4655
wor	-4656
▁संत	-4657
▁video	-4658
▁coun	-4659
लिफोर्निया	-4660
▁बताया	-4661
IS	-4662
ड़ित	-4663
▁शारीरिक	-4664
▁Since	-4665
ender	-4666
▁22	-4667
▁stra	-4668
▁expos	-4669
एम	-4670
▁रखते	-4671
▁राजनी	-4672
joy	-4673
▁attack	-4674
▁सीमित	-4675
▁sil	-4676
18	-4677
▁critical	-4678
▁stay	-4679
▁performance	-4680
▁किन	-4681
9,	-4682
▁मेरे	-4683
idge	-4684
▁तथ	-4685
जो	-4686
▁प्रकृति	-4687
fect	-4688
isions	-4689
लीय	-4690
▁मिन	-4691
ached	-4692
▁hot	-4693
▁international	-4694
▁अक्ष	-4695
▁नोट	-4696
▁वस्तु	-4697
गोल	-4698
▁rout	-4699
▁points	-4700
▁आकर्ष	-4701
▁progress	-4702
पति	-4703
▁Calif	-4704
कु	-4705
cies	-4706
▁खे	-4707
iques	-4708
▁multiple	-4709
▁उससे	-4710
र्च	-4711
▁foot	-4712
▁included	-4713
र्ड	-4714
▁मानचित्र	-4715
▁dou	-4716
▁सुविध	-4717
▁Sm	-4718
▁कीट	-4719
right	-4720
▁नाग	-4721
▁स्थिर	-4722
▁acid	-4723
▁दब	-4724
िंगटन	-4725
ino	-4726
▁larger	-4727
▁जिसने	-4728
▁सरल	-4729
gency	-4730
▁nation	-4731
4,	-4732
▁पारंपरिक	-4733
लाई	-4734
▁Ag	-4735
▁अनुक	-4736
मैन	-4737
▁बीमार	-4738
where	-4739
▁consist	-4740
▁:	-4741
ying	-4742
▁कंपनी	-4743
▁साइट	-4744
▁जर्म	-4745
▁minutes	-4746
▁दा	-4747
▁जून	-4748
bre	-4749
▁capt	-4750
▁गि	-4751
▁aff	-4752
ार्म	-4753
ension	-4754
ided	-4755
मत	-4756
▁mother	-4757
ायी	-4758
▁appropri	-4759
ucle	-4760
ops	-4761
▁कैलिफोर्निया	-4762
iot	-4763
ंडा	-4764
▁thous	-4765
▁extra	-4766
▁document	-4767
▁लक्ष्य	-4768
▁री	-4769
oes	-4770
▁हे	-4771
▁लगाया	-4772
▁sustain	-4773
▁investig	-4774
▁सफेद	-4775
▁waste	-4776
▁reflect	-4777
▁सेना	-4778
▁195	-4779
▁behind	-4780
uries	-4781
ims	-4782
cell	-4783
omet	-4784
▁decre	-4785
▁tax	-4786
▁estim	-4787
▁El	-4788
▁ful	-4789
ताल	-4790
▁दल	-4791
▁analy	-4792
▁road	-4793
ashing	-4794
ief	-4795
ंगे	-4796
ूफ	-4797
▁हूँ	-4798
▁respect	-4799
icated	-4800
▁birth	-4801
▁bad	-4802
▁जाएँ	-4803
▁मनो	-4804
▁उद्योग	-4805
▁चाल	-4806
▁तर्क	-4807
17	-4808
haps	-4809
▁बिंदु	-4810
▁colon	-4811
▁compared	-4812
▁attempt	-4813
rs	-4814
▁altern	-4815
▁चिकित्स	-4816
प्ट	-4817
▁सामना	-4818
पा	-4819
▁Art	-4820
▁evalu	-4821
एच	-4822
▁Department	-4823
▁teaching	-4824
▁independ	-4825
▁accur	-4826
▁software	-4827
);	-4828
▁मानक	-4829
vention	-4830
▁devices	-4831
IN	-4832
वासी	-4833
▁cit	-4834
▁commit	-4835
term	-4836
▁तहत	-4837
ृत्व	-4838
▁निम्नलिखित	-4839
▁दवाओं	-4840
▁प्रोटीन	-4841
▁श्रे	-4842
rition	-4843
▁aud	-4844
▁सौर	-4845
▁प्रोत्सा	-4846
शाली	-4847
▁उचित	-4848
▁tri	-4849
ana	-4850
▁expect	-4851
▁leading	-4852
▁images	-4853
▁असा	-4854
▁reve	-4855
▁पं	-4856
▁cross	-4857
▁additional	-4858
▁जित	-4859
load	-4860
▁परमाण	-4861
▁force	-4862
▁speak	-4863
▁news	-4864
▁Californ	-4865
▁highly	-4866
▁leaders	-4867
▁पूछ	-4868
▁leaves	-4869
जनन	-4870
bor	-4871
25	-4872
▁आनुव	-4873
▁सूचना	-4874
▁एजें	-4875
▁संशोध	-4876
▁उत्सर्	-4877
▁supply	-4878
▁कार्यों	-4879
▁families	-4880
▁Jan	-4881
▁policy	-4882
▁mill	-4883
▁संघीय	-4884
▁fav	-4885
▁adults	-4886
▁वीडियो	-4887
anks	-4888
▁negative	-4889
▁useful	-4890
▁(20	-4891
▁proced	-4892
▁security	-4893
ching	-4894
▁सै	-4895
▁नागरिक	-4896
▁अनुकूल	-4897
▁बैठ	-4898
▁card	-4899
▁Africa	-4900
▁प्रश्न	-4901
एल	-4902
ribution	-4903
▁bacteria	-4904
bol	-4905
▁website	-4906
ively	-4907
▁har	-4908
▁veh	-4909
ंगा	-4910
तृत्व	-4911
▁Inc	-4912
▁रू	-4913
▁चयन	-4914
▁directly	-4915
ift	-4916
▁contains	-4917
स्फ	-4918
▁sn	-4919
▁sold	-4920
▁पहुँच	-4921
ुनियादी	-4922
▁2008	-4923
नशील	-4924
▁custom	-4925
▁माल	-4926
सों	-4927
▁बढ़ावा	-4928
यॉर्क	-4929
▁Her	-4930
▁प्रणाल	-4931
▁ब्रा	-4932
▁Tra	-4933
-4	-4934
itude	-4935
धा	-4936
ूं	-4937
alking	-4938
▁प्रमाण	-4939
-0	-4940
▁habit	-4941
▁dark	-4942
▁third	-4943
▁immedi	-4944
▁egg	-4945
▁बढ़ाने	-4946
▁California	-4947
▁शिक्षक	-4948
लेज	-4949
▁तरीकों	-4950
▁Because	-4951
▁European	-4952
▁talk	-4953
▁Use	-4954
▁आधारित	-4955
्ली	-4956
70	-4957
ror	-4958
दारी	-4959
▁soon	-4960
elt	-4961
▁concent	-4962
▁financial	-4963
▁digital	-4964
▁ones	-4965
▁thinking	-4966
▁समाधान	-4967
▁चट्ट	-4968
सिक	-4969
ॉस	-4970
्रेस	-4971
▁enjoy	-4972
▁Indian	-4973
पे	-4974
णु	-4975
ज़र	-4976
▁eth	-4977
osing	-4978
lied	-4979
▁weeks	-4980
▁कौन	-4981
▁express	-4982
मै	-4983
▁theory	-4984
rogen	-4985
▁बुनियादी	-4986
▁यौ	-4987
▁teeth	-4988
▁उल्लेख	-4989
▁pack	-4990
मो	-4991
▁search	-4992
▁इलेक्ट्र	-4993
▁exact	-4994
▁उड़	-4995
▁23	-4996
▁सर्व	-4997
▁season	-4998
▁Day	-4999
▁features	-5000
▁eating	-5001
िव	-5002
▁उनमें	-5003
▁निर्णय	-5004
▁विश्वास	-5005
▁स्तन	-5006
▁application	-5007
na	-5008
▁Aug	-5009
ologies	-5010
ha	-5011
oming	-5012
▁गलत	-5013
▁prior	-5014
▁चर्च	-5015
▁वित	-5016
▁विशाल	-5017
▁hor	-5018
ियस	-5019
▁नेतृत्व	-5020
▁करी	-5021
▁फूल	-5022
▁प्रेरित	-5023
▁नेटवर्क	-5024
▁fast	-5025
▁वर्णन	-5026
▁transport	-5027
iers	-5028
▁goal	-5029
▁छोटा	-5030
शिया	-5031
undred	-5032
▁fa	-5033
fort	-5034
▁टै	-5035
▁web	-5036
▁Reg	-5037
▁प्रतिनिधित्व	-5038
▁जल्दी	-5039
▁creating	-5040
▁hands	-5041
▁Ant	-5042
▁अनुप्र	-5043
▁90	-5044
▁यहू	-5045
pe	-5046
▁Ju	-5047
▁aspect	-5048
▁purpose	-5049
वेक्षण	-5050
▁औसत	-5051
▁town	-5052
▁game	-5053
uth	-5054
▁Over	-5055
▁पुराने	-5056
mar	-5057
arr	-5058
▁तनाव	-5059
▁therefore	-5060
erson	-5061
▁विविध	-5062
▁eyes	-5063
▁Also	-5064
श्किल	-5065
▁largest	-5066
▁लकड़ी	-5067
▁summer	-5068
ॉप	-5069
▁आधुनिक	-5070
स्ताव	-5071
▁History	-5072
▁typically	-5073
▁civil	-5074
▁70	-5075
▁वहाँ	-5076
cles	-5077
▁मुश्किल	-5078
▁projects	-5079
▁तंत्रिका	-5080
▁broad	-5081
▁मो	-5082
▁fib	-5083
▁ancient	-5084
▁(200	-5085
▁towards	-5086
ाइट	-5087
ulate	-5088
▁clin	-5089
vant	-5090
▁reach	-5091
▁पाँच	-5092
▁breat	-5093
▁contribut	-5094
म्स	-5095
▁समूहों	-5096
▁अच्छे	-5097
▁निवास	-5098
▁पौधे	-5099
श्चर्य	-5100
cks	-5101
▁applications	-5102
▁दबाव	-5103
son	-5104
ibrary	-5105
▁install	-5106
yond	-5107
▁व्याव	-5108
▁Sw	-5109
90	-5110
▁elements	-5111
▁techniques	-5112
▁strateg	-5113
▁fit	-5114
▁base	-5115
▁रात	-5116
गति	-5117
cial	-5118
▁beginning	-5119
▁वाता	-5120
▁न्यूयॉर्क	-5121
▁French	-5122
▁प्रवाह	-5123
किन	-5124
▁rare	-5125
ille	-5126
▁सेंट	-5127
▁चिंता	-5128
▁पैमाने	-5129
▁वातावरण	-5130
ांति	-5131
▁requires	-5132
▁क्यू	-5133
▁Are	-5134
▁Mon	-5135
▁established	-5136
idents	-5137
ipment	-5138
▁fight	-5139
”.	-5140
ॉक्स	-5141
▁table	-5142
▁पत्रिका	-5143
▁डा	-5144
▁भु	-5145
गरानी	-5146
▁ईंधन	-5147
▁गतिविधियों	-5148
▁front	-5149
uary	-5150
den	-5151
▁yourself	-5152
सू	-5153
▁speed	-5154
▁African	-5155
▁Then	-5156
▁central	-5157
▁अद	-5158
life	-5159
▁International	-5160
▁cool	-5161
▁ध्व	-5162
att	-5163
iter	-5164
▁West	-5165
▁mom	-5166
▁आश्चर्य	-5167
▁पीड़ित	-5168
▁solution	-5169
▁कर्म	-5170
▁क्लिक	-5171
coh	-5172
▁दस्ता	-5173
निर्	-5174
▁पेड़	-5175
▁protection	-5176
▁values	-5177
▁situation	-5178
▁पूर्	-5179
▁लें	-5180
▁People	-5181
▁device	-5182
▁Char	-5183
ियल	-5184
▁Serv	-5185
▁nearly	-5186
▁रण	-5187
▁सूर्	-5188
▁costs	-5189
▁आपूर्ति	-5190
▁भारी	-5191
▁नासा	-5192
लिन	-5193
▁वस्तुओं	-5194
▁sugar	-5195
▁प्रस्ताव	-5196
▁ang	-5197
▁निगरानी	-5198
hens	-5199
▁wa	-5200
▁मार्च	-5201
lier	-5202
▁जैव	-5203
oly	-5204
▁thus	-5205
▁पैर	-5206
▁jo	-5207
eed	-5208
▁रणनी	-5209
▁carry	-5210
oud	-5211
▁चीनी	-5212
www	-5213
sect	-5214
▁River	-5215
vest	-5216
उट	-5217
▁तूफ	-5218
▁परिवर्त	-5219
▁length	-5220
▁किश	-5221
▁Let	-5222
रेट	-5223
▁fram	-5224
▁rates	-5225
▁सर्वेक्षण	-5226
▁पश्चिमी	-5227
▁Prog	-5228
▁testing	-5229
▁संवेद	-5230
▁पुरुषों	-5231
ुमे	-5232
▁186	-5233
▁Americans	-5234
ोग्राम	-5235
दों	-5236
▁Once	-5237
▁Techn	-5238
▁held	-5239
isms	-5240
▁quant	-5241
रित	-5242
पो	-5243
▁processes	-5244
▁lost	-5245
head	-5246
▁cold	-5247
istry	-5248
्मा	-5249
▁communication	-5250
्फ	-5251
pper	-5252
iece	-5253
entially	-5254
▁friends	-5255
▁bul	-5256
ालित	-5257
▁block	-5258
▁diabetes	-5259
▁विफ	-5260
▁memory	-5261
year	-5262
▁cred	-5263
▁places	-5264
▁located	-5265
▁choose	-5266
▁cam	-5267
PA	-5268
imal	-5269
▁surround	-5270
चीन	-5271
▁host	-5272
▁mount	-5273
▁tests	-5274
▁190	-5275
▁प्ले	-5276
▁div	-5277
▁शि	-5278
ields	-5279
▁March	-5280
▁गर्मी	-5281
▁protein	-5282
▁ult	-5283
▁अल्	-5284
बह	-5285
▁cele	-5286
▁इका	-5287
▁नियमित	-5288
▁Sim	-5289
▁seems	-5290
aly	-5291
▁limited	-5292
कालिक	-5293
▁राष्ट्रपति	-5294
▁इंजीनियर	-5295
cil	-5296
▁(3	-5297
ल्पना	-5298
▁स्वीकार	-5299
▁चोट	-5300
▁2000	-5301
▁beaut	-5302
ding	-5303
▁Prof	-5304
odies	-5305
▁isn	-5306
▁therapy	-5307
▁उठा	-5308
▁http	-5309
▁नीति	-5310
▁भंड	-5311
▁pan	-5312
▁got	-5313
▁although	-5314
ription	-5315
▁Associ	-5316
It	-5317
▁समझने	-5318
▁प्रदर्शित	-5319
द्र	-5320
▁Gra	-5321
▁affected	-5322
कोश	-5323
▁Canada	-5324
मु	-5325
▁निकाल	-5326
▁Each	-5327
▁ice	-5328
▁Education	-5329
▁gives	-5330
▁अंक	-5331
▁code	-5332
▁मुक्त	-5333
▁becomes	-5334
▁Oct	-5335
▁सेट	-5336
▁impl	-5337
▁examples	-5338
book	-5339
▁spir	-5340
▁stri	-5341
▁Apr	-5342
वेयर	-5343
▁विरोध	-5344
▁Red	-5345
ius	-5346
▁वायरस	-5347
▁teacher	-5348
▁planet	-5349
".	-5350
outhern	-5351
▁recently	-5352
▁weather	-5353
क्ष्म	-5354
सिद्ध	-5355
oe	-5356
▁Jes	-5357
ांतर	-5358
▁आसानी	-5359
▁importance	-5360
▁mole	-5361
wise	-5362
▁demand	-5363
▁behavi	-5364
नाक	-5365
थर	-5366
▁file	-5367
▁गणित	-5368
▁इनमें	-5369
▁hope	-5370
▁bott	-5371
▁hundred	-5372
▁छह	-5373
resh	-5374
▁older	-5375
▁else	-5376
▁Cor	-5377
▁center	-5378
▁lo	-5379
▁sites	-5380
▁प्रभावों	-5381
▁क्व	-5382
orthern	-5383
▁professional	-5384
▁stru	-5385
▁rob	-5386
▁mix	-5387
▁adapt	-5388
▁आए	-5389
्राफ	-5390
मीटर	-5391
▁संगठन	-5392
▁प्ला	-5393
▁went	-5394
▁सीधे	-5395
ipl	-5396
▁विशेषता	-5397
▁screen	-5398
▁cra	-5399
▁डाय	-5400
izations	-5401
▁section	-5402
▁देना	-5403
▁कना	-5404
▁संचार	-5405
▁capac	-5406
▁अनुप्रयोग	-5407
▁benefit	-5408
▁respond	-5409
चर	-5410
IC	-5411
mosp	-5412
▁ग्ल	-5413
▁deal	-5414
▁fuel	-5415
▁पढ़ने	-5416
come	-5417
▁मिनट	-5418
▁कदम	-5419
▁Sept	-5420
िकल	-5421
▁currently	-5422
▁crop	-5423
▁खाने	-5424
▁pregn	-5425
▁पहा	-5426
▁परमाणु	-5427
ON	-5428
▁room	-5429
atur	-5430
▁calcul	-5431
▁decision	-5432
▁परिणामों	-5433
▁appropriate	-5434
▁born	-5435
▁स्थल	-5436
itect	-5437
▁everyone	-5438
▁मांग	-5439
▁मीटर	-5440
▁trying	-5441
▁connect	-5442
lection	-5443
▁High	-5444
▁पुस्तकाल	-5445
▁recommend	-5446
▁whose	-5447
▁प्रगति	-5448
In	-5449
▁rain	-5450
▁remain	-5451
▁जुड़े	-5452
inct	-5453
▁dead	-5454
▁संसाधनों	-5455
▁lines	-5456
▁अर्	-5457
▁वालों	-5458
▁पड़ता	-5459
▁Fin	-5460
वाई	-5461
▁कॉलेज	-5462
▁Just	-5463
▁Mus	-5464
म्प	-5465
izes	-5466
▁अगले	-5467
▁everything	-5468
ियां	-5469
▁June	-5470
▁Bar	-5471
▁labor	-5472
OR	-5473
▁opportunity	-5474
▁agricult	-5475
प्रिय	-5476
▁मिली	-5477
▁construction	-5478
▁objects	-5479
▁सूक्ष्म	-5480
▁अस्थ	-5481
▁military	-5482
▁efforts	-5483
ंतरिक	-5484
▁आंक	-5485
▁fra	-5486
▁workers	-5487
▁Tod	-5488
equ	-5489
AN	-5490
▁बाहरी	-5491
▁miles	-5492
▁अवश	-5493
▁शिकार	-5494
▁Another	-5495
▁receive	-5496
▁equipment	-5497
▁पाल	-5498
बो	-5499
▁email	-5500
▁दूसरी	-5501
ेलिया	-5502
▁जंग	-5503
▁एकत्र	-5504
▁autom	-5505
▁5.	-5506
्यिक	-5507
▁private	-5508
▁अंततः	-5509
▁तथ्य	-5510
▁remains	-5511
▁सूर्य	-5512
▁दस्तावे	-5513
पया	-5514
▁बनाता	-5515
illing	-5516
ुमेह	-5517
▁shape	-5518
▁2007	-5519
▁anything	-5520
▁pet	-5521
▁rapid	-5522
▁winter	-5523
water	-5524
▁Russ	-5525
▁Water	-5526
▁German	-5527
rig	-5528
-5	-5529
▁fruit	-5530
▁आत्म	-5531
▁Gree	-5532
▁gradu	-5533
▁visual	-5534
▁कॉल	-5535
estic	-5536
ED	-5537
क्टी	-5538
▁उसकी	-5539
▁providing	-5540
ार्ट	-5541
▁निप	-5542
cohol	-5543
▁baby	-5544
▁Develop	-5545
ype	-5546
किंग	-5547
▁मिस	-5548
▁insp	-5549
रक	-5550
▁cou	-5551
▁obt	-5552
▁guid	-5553
▁reasons	-5554
▁responsible	-5555
ंसा	-5556
▁Dis	-5557
uff	-5558
पेश	-5559
प्स	-5560
▁Park	-5561
▁decl	-5562
▁यूरोपीय	-5563
ky	-5564
▁advant	-5565
ext	-5566
▁smaller	-5567
▁told	-5568
▁adj	-5569
▁विन	-5570
ashington	-5571
▁निदान	-5572
▁occurs	-5573
uman	-5574
ामक	-5575
rees	-5576
22	-5577
▁Don	-5578
▁Trans	-5579
▁property	-5580
▁सम्	-5581
▁vict	-5582
▁joint	-5583
▁exposure	-5584
bit	-5585
ृति	-5586
aught	-5587
▁won	-5588
itable	-5589
▁प्राचीन	-5590
time	-5591
डो	-5592
▁rock	-5593
धिकार	-5594
IV	-5595
जब	-5596
वहन	-5597
▁accom	-5598
▁drugs	-5599
▁stage	-5600
▁बनाते	-5601
▁प्रसिद्ध	-5602
▁enh	-5603
▁रोगी	-5604
co	-5605
ैनिक	-5606
iar	-5607
मीन	-5608
▁Mod	-5609
व्यव	-5610
▁expected	-5611
ामी	-5612
▁middle	-5613
▁received	-5614
ula	-5615
▁अरब	-5616
▁County	-5617
ँचा	-5618
ribute	-5619
▁शराब	-5620
▁व्यापार	-5621
▁cultural	-5622
▁coast	-5623
यू	-5624
▁imag	-5625
टे	-5626
▁जोर	-5627
▁सहायक	-5628
▁अनुर	-5629
▁शैली	-5630
▁आंतरिक	-5631
▁मू	-5632
▁north	-5633
enge	-5634
▁influence	-5635
▁लिखा	-5636
-8	-5637
▁Sur	-5638
▁सवाल	-5639
▁Dav	-5640
▁भ्र	-5641
▁राजनीतिक	-5642
rote	-5643
▁कृपया	-5644
▁सम्मान	-5645
iles	-5646
▁मधुमेह	-5647
▁users	-5648
▁निकल	-5649
▁ball	-5650
ran	-5651
mission	-5652
बर्ग	-5653
▁discovered	-5654
back	-5655
▁date	-5656
olar	-5657
▁2,	-5658
▁location	-5659
▁immune	-5660
▁billion	-5661
▁April	-5662
ायर	-5663
शिंगटन	-5664
tery	-5665
▁swe	-5666
▁interesting	-5667
▁brought	-5668
▁steps	-5669
▁फे	-5670
▁उत्सर्जन	-5671
▁birds	-5672
▁पारिस्थित	-5673
▁किस	-5674
▁लगातार	-5675
▁died	-5676
▁nucle	-5677
▁विज्ञ	-5678
▁mis	-5679
▁practices	-5680
▁निर	-5681
▁cru	-5682
▁strength	-5683
▁hair	-5684
▁Great	-5685
▁standards	-5686
▁लौ	-5687
▁लोकप्रिय	-5688
▁तुर	-5689
▁user	-5690
TP	-5691
▁कल	-5692
▁nutri	-5693
▁leave	-5694
▁रुचि	-5695
▁Cur	-5696
▁August	-5697
▁goes	-5698
▁स्थानों	-5699
▁adop	-5700
▁खरीद	-5701
▁System	-5702
▁capital	-5703
▁मश	-5704
▁प्रजनन	-5705
ग्	-5706
uments	-5707
▁signs	-5708
▁overall	-5709
▁Washington	-5710
▁लड़	-5711
inese	-5712
▁संग्रहालय	-5713
चीत	-5714
▁federal	-5715
▁झील	-5716
▁प्रोत्साहित	-5717
▁models	-5718
-20	-5719
hemat	-5720
▁south	-5721
▁सफलता	-5722
▁anti	-5723
▁electr	-5724
amb	-5725
icate	-5726
▁मेड	-5727
exic	-5728
▁administ	-5729
▁आनुवंशिक	-5730
▁Jesus	-5731
▁economy	-5732
used	-5733
यनों	-5734
▁कुत्	-5735
ests	-5736
▁हान	-5737
▁पैट	-5738
▁illness	-5739
▁final	-5740
▁27	-5741
▁बातचीत	-5742
▁कहीं	-5743
▁transl	-5744
gery	-5745
▁विधि	-5746
▁citiz	-5747
ेह	-5748
▁डिज़	-5749
▁purch	-5750
▁28	-5751
uous	-5752
▁सूख	-5753
लाव	-5754
med	-5755
oration	-5756
▁26	-5757
स्ट्रेलिया	-5758
200	-5759
▁perfect	-5760
▁garden	-5761
लाश	-5762
▁successful	-5763
▁परिभाष	-5764
▁commonly	-5765
____	-5766
wide	-5767
▁Students	-5768
▁स्ट्र	-5769
▁completely	-5770
ospital	-5771
▁चम	-5772
ech	-5773
ster	-5774
uk	-5775
लभ	-5776
▁depend	-5777
▁उत्पादों	-5778
▁laws	-5779
▁यहां	-5780
▁बीज	-5781
▁संचालन	-5782
▁President	-5783
▁except	-5784
▁चंद्र	-5785
▁mouth	-5786
▁साब	-5787
▁via	-5788
▁mid	-5789
▁Children	-5790
▁collection	-5791
▁interp	-5792
▁जिम्मेदार	-5793
▁अनुप	-5794
▁rise	-5795
ॉफ्ट	-5796
aid	-5797
ellig	-5798
▁scale	-5799
▁फोट	-5800
▁teach	-5801
▁संपाद	-5802
▁ज्या	-5803
▁करीब	-5804
▁wond	-5805
▁pen	-5806
ocks	-5807
amples	-5808
vert	-5809
EN	-5810
▁City	-5811
▁Mc	-5812
▁mention	-5813
▁हल्	-5814
▁लेते	-5815
ulated	-5816
arian	-5817
▁beyond	-5818
▁maintain	-5819
▁प्रणालियों	-5820
कालीन	-5821
▁asked	-5822
ोफ	-5823
क्साइड	-5824
▁अध्ययनों	-5825
▁controll	-5826
▁Pat	-5827
▁rich	-5828
▁तरल	-5829
▁note	-5830
oses	-5831
भूमि	-5832
▁hous	-5833
▁गरी	-5834
▁तल	-5835
▁tox	-5836
▁मांसपेश	-5837
▁गी	-5838
▁challenges	-5839
ामिन	-5840
▁July	-5841
▁फर	-5842
▁सकें	-5843
▁प्रशिक्षण	-5844
▁अगस्त	-5845
itch	-5846
▁unc	-5847
▁प्रथ	-5848
▁remember	-5849
▁basis	-5850
▁emissions	-5851
देशक	-5852
याम	-5853
▁genetic	-5854
▁बोल	-5855
▁बने	-5856
▁प्रतिर	-5857
दृ	-5858
▁हटा	-5859
▁fear	-5860
▁मिश्र	-5861
▁mob	-5862
▁rules	-5863
▁agree	-5864
▁instru	-5865
▁छव	-5866
▁अवधारण	-5867
▁बैक्टी	-5868
▁establish	-5869
▁beg	-5870
▁tit	-5871
▁degree	-5872
▁लिंक	-5873
▁वाशिंगटन	-5874
▁अपे	-5875
bl	-5876
▁डिज़ाइन	-5877
▁named	-5878
▁powerful	-5879
iable	-5880
▁जैविक	-5881
▁Mexic	-5882
▁assign	-5883
▁England	-5884
craft	-5885
▁Today	-5886
▁तुरंत	-5887
मों	-5888
▁Every	-5889
▁Under	-5890
ios	-5891
▁fair	-5892
▁ep	-5893
स्थिति	-5894
▁Commun	-5895
▁display	-5896
▁पेशे	-5897
▁breast	-5898
▁चिकित्सक	-5899
ज्य	-5900
unch	-5901
▁उसने	-5902
▁फल	-5903
▁राजा	-5904
▁plastic	-5905
▁und	-5906
क्रामक	-5907
▁machine	-5908
▁धारा	-5909
rim	-5910
बर्ट	-5911
▁conflic	-5912
डे	-5913
▁Cong	-5914
कारों	-5915
▁acad	-5916
▁effort	-5917
▁ऑस्ट्रेलिया	-5918
▁alone	-5919
केट	-5920
्यता	-5921
▁व्यक्त	-5922
▁Vir	-5923
▁predict	-5924
▁organization	-5925
जिन	-5926
▁atmosp	-5927
▁वार	-5928
▁अप्रैल	-5929
▁मानना	-5930
▁constant	-5931
IT	-5932
▁पैटर्न	-5933
▁sett	-5934
▁सां	-5935
▁शिक्षकों	-5936
▁trade	-5937
rie	-5938
▁Aut	-5939
ensity	-5940
▁offers	-5941
omy	-5942
▁efficient	-5943
ero	-5944
▁दूसरा	-5945
ियान	-5946
▁किशोर	-5947
▁stories	-5948
aters	-5949
▁William	-5950
ोकन	-5951
▁व्यायाम	-5952
aled	-5953
▁saw	-5954
▁described	-5955
ama	-5956
ony	-5957
▁guide	-5958
▁सेवन	-5959
▁Black	-5960
▁पोषण	-5961
ira	-5962
▁Chinese	-5963
▁nothing	-5964
▁उपभ	-5965
▁मिले	-5966
▁UK	-5967
▁बढ़ती	-5968
apter	-5969
▁तीस	-5970
anish	-5971
ड्डी	-5972
▁लक्षणों	-5973
▁September	-5974
▁Environment	-5975
▁ing	-5976
▁जीवा	-5977
▁woman	-5978
▁symbol	-5979
▁increases	-5980
▁tissue	-5981
▁कार्यक्रमों	-5982
▁enter	-5983
▁opportunities	-5984
▁Feb	-5985
▁measures	-5986
▁देगा	-5987
▁फॉ	-5988
▁सब्	-5989
धन	-5990
▁max	-5991
▁192	-5992
▁सुविधा	-5993
र्ग	-5994
▁सितंबर	-5995
▁दक्षिणी	-5996
ibly	-5997
ड़ाई	-5998
ASA	-5999
क्शन	-6000
▁फीट	-6001
▁रचना	-6002
▁कारक	-6003
▁जिनके	-6004
शिष्ट	-6005
aste	-6006
-6	-6007
▁इतना	-6008
▁antib	-6009
▁युग	-6010
▁options	-6011
▁दूरी	-6012
▁मई	-6013
▁innov	-6014
▁properties	-6015
देशी	-6016
▁स्वतंत्रता	-6017
▁neigh	-6018
▁गणना	-6019
▁नामक	-6020
▁माइक्र	-6021
▁commerc	-6022
▁Their	-6023
▁gir	-6024
▁root	-6025
▁आद	-6026
▁कोड	-6027
सायनिक	-6028
▁member	-6029
▁उद्यान	-6030
rael	-6031
▁consequ	-6032
▁tou	-6033
▁कण	-6034
▁Che	-6035
▁piece	-6036
▁blue	-6037
▁जॉर्	-6038
▁exec	-6039
▁वसा	-6040
▁ग्रीन	-6041
rates	-6042
▁jud	-6043
▁approx	-6044
▁collabor	-6045
▁Bo	-6046
▁पुस्तकालय	-6047
▁Australia	-6048
▁संघर्ष	-6049
iny	-6050
ords	-6051
osition	-6052
▁DNA	-6053
▁निर्मा	-6054
▁explore	-6055
▁परिभाषित	-6056
▁star	-6057
ांतों	-6058
▁placed	-6059
▁classroom	-6060
मेल	-6061
▁दिखाया	-6062
▁version	-6063
▁box	-6064
▁लंबी	-6065
▁Val	-6066
....	-6067
▁बैक्टीरिया	-6068
▁bone	-6069
▁बनाना	-6070
▁डाइ	-6071
▁जुलाई	-6072
दानिक	-6073
▁moving	-6074
hy	-6075
▁प्ल	-6076
▁miss	-6077
▁picture	-6078
▁आता	-6079
AC	-6080
▁coming	-6081
▁mal	-6082
आर	-6083
▁ord	-6084
▁ईसा	-6085
▁इलेक्ट्रॉन	-6086
▁didn	-6087
▁cities	-6088
era	-6089
▁भिन्न	-6090
▁reduced	-6091
▁followed	-6092
rew	-6093
▁(18	-6094
ceed	-6095
ड़ियों	-6096
see	-6097
▁गाय	-6098
▁religious	-6099
▁कैथ	-6100
क्टू	-6101
लै	-6102
▁virt	-6103
▁आइ	-6104
▁corn	-6105
▁choice	-6106
▁घोषण	-6107
▁assist	-6108
▁father	-6109
▁35	-6110
▁changed	-6111
▁राज्यों	-6112
▁रखना	-6113
्वा	-6114
मस	-6115
▁topic	-6116
▁earlier	-6117
▁hyp	-6118
▁categ	-6119
ica	-6120
▁गहरा	-6121
ilos	-6122
▁balance	-6123
iples	-6124
शास्त्र	-6125
care	-6126
▁विद्य	-6127
▁legal	-6128
▁बढ़ने	-6129
▁educational	-6130
क्टूबर	-6131
▁मिशन	-6132
▁प्रतीत	-6133
▁fresh	-6134
▁huge	-6135
▁der	-6136
▁आकाश	-6137
▁भग	-6138
▁पुरानी	-6139
▁स्म	-6140
▁हट	-6141
uit	-6142
amic	-6143
iences	-6144
▁चलने	-6145
▁थोड़ा	-6146
iful	-6147
▁wrote	-6148
▁ten	-6149
odes	-6150
rome	-6151
▁कैर	-6152
▁बदलने	-6153
ulum	-6154
▁map	-6155
▁easier	-6156
▁तेज	-6157
▁Sch	-6158
▁limit	-6159
जारों	-6160
▁sect	-6161
▁historical	-6162
▁Public	-6163
▁applied	-6164
house	-6165
ygen	-6166
▁convers	-6167
▁अफ्रीकी	-6168
▁poly	-6169
▁स्थापना	-6170
▁appe	-6171
▁patterns	-6172
▁चीजों	-6173
▁thousands	-6174
▁load	-6175
तु	-6176
ोलॉ	-6177
▁इमार	-6178
▁निच	-6179
ovember	-6180
▁glass	-6181
▁नैदानिक	-6182
▁differences	-6183
airs	-6184
▁hon	-6185
▁चुनौती	-6186
▁dat	-6187
क्ता	-6188
▁save	-6189
▁Bra	-6190
▁Green	-6191
▁pow	-6192
can	-6193
▁son	-6194
aur	-6195
▁स्क्र	-6196
ss	-6197
▁कठोर	-6198
▁gold	-6199
आधारित	-6200
▁Govern	-6201
ford	-6202
▁निदेशक	-6203
▁मल	-6204
abilities	-6205
▁happen	-6206
▁पूर्वी	-6207
▁विद्युत	-6208
▁बेट	-6209
▁command	-6210
▁findings	-6211
▁मशीन	-6212
▁worth	-6213
▁journal	-6214
▁पक्षी	-6215
▁forward	-6216
▁strugg	-6217
▁जॉर्ज	-6218
▁पेशेवर	-6219
enty	-6220
▁allowed	-6221
bur	-6222
▁Bi	-6223
वलोकन	-6224
▁San	-6225
▁Spec	-6226
ste	-6227
ought	-6228
▁technologies	-6229
iring	-6230
▁watch	-6231
▁सड़क	-6232
▁female	-6233
▁native	-6234
▁components	-6235
▁alcohol	-6236
▁fully	-6237
▁chance	-6238
▁मर	-6239
▁कहाँ	-6240
▁January	-6241
▁189	-6242
▁inform	-6243
▁style	-6244
▁detect	-6245
सेट	-6246
▁उज	-6247
▁घास	-6248
मात्र	-6249
▁भगवान	-6250
▁eight	-6251
ondon	-6252
▁हड्डी	-6253
▁Rem	-6254
▁electricity	-6255
▁mig	-6256
▁effic	-6257
▁उसी	-6258
▁actions	-6259
known	-6260
▁प्रदू	-6261
▁कानू	-6262
ांक	-6263
▁घटनाओं	-6264
▁दिख	-6265
▁insect	-6266
sec	-6267
▁showed	-6268
▁cry	-6269
▁सफल	-6270
▁illust	-6271
▁बहु	-6272
cember	-6273
▁व्यक्तियों	-6274
गतान	-6275
que	-6276
▁anx	-6277
जोर	-6278
▁October	-6279
▁ब्रिटिश	-6280
edia	-6281
▁incor	-6282
▁task	-6283
▁capacity	-6284
iate	-6285
स्थाप	-6286
▁रासायनिक	-6287
▁gain	-6288
▁Israel	-6289
▁running	-6290
▁depression	-6291
▁extremely	-6292
स्टन	-6293
▁ज्व	-6294
▁vision	-6295
▁worked	-6296
▁नैन	-6297
orage	-6298
▁kid	-6299
▁formed	-6300
ocol	-6301
▁NASA	-6302
▁विभाजित	-6303
▁absor	-6304
▁planning	-6305
▁दिशा	-6306
▁Using	-6307
▁goals	-6308
▁अना	-6309
▁बाव	-6310
▁यहूदी	-6311
▁वायुम	-6312
▁strategies	-6313
स्ते	-6314
▁sequ	-6315
▁2006	-6316
अप	-6317
▁milk	-6318
▁element	-6319
▁दिलच	-6320
▁वायु	-6321
▁architect	-6322
This	-6323
▁factor	-6324
▁इंच	-6325
▁गुला	-6326
धानी	-6327
▁spring	-6328
▁निरंतर	-6329
reet	-6330
▁Journal	-6331
mitted	-6332
▁गुजर	-6333
▁घोषणा	-6334
▁सिस्ट	-6335
▁celebr	-6336
▁aim	-6337
▁वयस्क	-6338
▁explain	-6339
▁दर्ज	-6340
▁विचारों	-6341
▁staff	-6342
▁बावजूद	-6343
▁Found	-6344
▁तूफान	-6345
▁giving	-6346
▁बनाई	-6347
ाया	-6348
ारात्मक	-6349
▁majority	-6350
▁functions	-6351
▁rule	-6352
aint	-6353
▁items	-6354
▁graph	-6355
ंगिक	-6356
▁famous	-6357
▁moment	-6358
isl	-6359
▁लो	-6360
▁details	-6361
रल	-6362
eces	-6363
▁tooth	-6364
▁dogs	-6365
िनियम	-6366
▁रसायन	-6367
▁destro	-6368
▁mission	-6369
asks	-6370
▁हाइड	-6371
▁मीडिया	-6372
▁Pol	-6373
▁Food	-6374
▁existing	-6375
बार	-6376
rupt	-6377
▁exhib	-6378
ara	-6379
▁अक्टूबर	-6380
टो	-6381
rehens	-6382
▁plans	-6383
▁चक्र	-6384
▁vo	-6385
▁remove	-6386
▁consumption	-6387
irection	-6388
्प	-6389
▁चीन	-6390
▁expand	-6391
▁fert	-6392
▁खन	-6393
▁कोल	-6394
▁apply	-6395
▁names	-6396
ux	-6397
▁हिस्सों	-6398
▁खतरे	-6399
rick	-6400
▁प्रसार	-6401
▁कार्यालय	-6402
▁जनवरी	-6403
▁Prot	-6404
▁बाय	-6405
▁decades	-6406
▁प्रतिबंध	-6407
▁Program	-6408
ham	-6409
ृह	-6410
▁2005	-6411
rec	-6412
II	-6413
▁Des	-6414
related	-6415
▁प्रतिरोध	-6416
▁identified	-6417
▁experiences	-6418
रावट	-6419
▁muscle	-6420
hab	-6421
▁विस्तृत	-6422
▁कठिन	-6423
ube	-6424
▁price	-6425
▁disorder	-6426
▁Plan	-6427
▁unit	-6428
▁Christian	-6429
राक	-6430
ologist	-6431
iant	-6432
▁liqu	-6433
▁ति	-6434
▁relatively	-6435
▁East	-6436
▁प्रि	-6437
▁context	-6438
▁monit	-6439
▁forces	-6440
lor	-6441
चय	-6442
▁गिरावट	-6443
▁Lat	-6444
21	-6445
क्ख	-6446
्टर	-6447
▁temperatures	-6448
▁फिल्म	-6449
▁मनुष्यों	-6450
▁बाजार	-6451
▁instance	-6452
bed	-6453
zz	-6454
▁perhaps	-6455
विड	-6456
▁भुगतान	-6457
off	-6458
ingu	-6459
▁feature	-6460
▁असामान्य	-6461
▁bed	-6462
▁स्मार	-6463
▁संस्कृति	-6464
▁Society	-6465
▁repe	-6466
▁promot	-6467
▁reports	-6468
िरण	-6469
▁iron	-6470
कै	-6471
षक	-6472
▁जानने	-6473
▁mo	-6474
▁weak	-6475
▁Association	-6476
▁विट	-6477
िटल	-6478
▁6.	-6479
्यजीव	-6480
▁Colle	-6481
▁Profess	-6482
▁जितना	-6483
erate	-6484
▁stim	-6485
▁survey	-6486
lin	-6487
▁घा	-6488
uild	-6489
▁November	-6490
र्घ	-6491
▁जल्द	-6492
oma	-6493
▁acqu	-6494
▁शोधकर्ता	-6495
स्यों	-6496
कल्प	-6497
▁friend	-6498
▁आती	-6499
▁attract	-6500
aign	-6501
▁homes	-6502
स्फोट	-6503
▁House	-6504
▁sch	-6505
▁instruct	-6506
▁उड़ान	-6507
▁math	-6508
त्या	-6509
▁परिस	-6510
rief	-6511
▁presence	-6512
▁challenge	-6513
▁wrong	-6514
gypt	-6515
▁susp	-6516
▁nutrition	-6517
▁बढ़ते	-6518
▁asse	-6519
▁London	-6520
▁emp	-6521
500	-6522
tes	-6523
▁solutions	-6524
▁1990	-6525
▁excess	-6526
▁suggests	-6527
ogen	-6528
र्प	-6529
ीकरण	-6530
▁इसी	-6531
▁king	-6532
▁medicine	-6533
▁IS	-6534
▁Av	-6535
▁UN	-6536
▁util	-6537
▁खर्च	-6538
▁Ob	-6539
▁former	-6540
pped	-6541
pris	-6542
ees	-6543
ses	-6544
▁treated	-6545
edom	-6546
▁वन्यजीव	-6547
▁river	-6548
▁गुना	-6549
▁rot	-6550
ruary	-6551
▁Arch	-6552
▁generation	-6553
iding	-6554
encies	-6555
▁See	-6556
▁स्टी	-6557
orge	-6558
िसंबर	-6559
▁wid	-6560
75	-6561
▁कल्पना	-6562
राइट	-6563
▁द्र	-6564
▁अस्पताल	-6565
DA	-6566
▁कमजोर	-6567
▁distance	-6568
▁transfer	-6569
▁चर	-6570
▁Cour	-6571
▁contract	-6572
▁Rel	-6573
▁risks	-6574
more	-6575
ामा	-6576
▁vill	-6577
▁मांसपेशियों	-6578
▁इंटरनेट	-6579
▁आनंद	-6580
▁यून	-6581
fl	-6582
▁construct	-6583
▁खोजने	-6584
▁500	-6585
hors	-6586
▁दोस्त	-6587
▁lung	-6588
name	-6589
▁shall	-6590
▁परेश	-6591
aul	-6592
स्टिक	-6593
▁qual	-6594
▁Const	-6595
▁कितना	-6596
▁status	-6597
▁फा	-6598
▁Mat	-6599
▁विकिरण	-6600
▁मैदान	-6601
▁figure	-6602
▁compar	-6603
▁फसल	-6604
▁occup	-6605
▁दीर्घ	-6606
▁फ्रांस	-6607
phas	-6608
▁spirit	-6609
▁व्यवसाय	-6610
▁appears	-6611
▁300	-6612
▁December	-6613
▁अवलोकन	-6614
.-	-6615
▁मंगल	-6616
▁प्रेस	-6617
हे	-6618
lick	-6619
orms	-6620
▁Internet	-6621
▁रहता	-6622
igen	-6623
▁स्ना	-6624
▁उपयुक्त	-6625
▁surgery	-6626
ares	-6627
▁inflamm	-6628
▁Make	-6629
▁continued	-6630
▁Dec	-6631
▁नवीन	-6632
▁recommended	-6633
example	-6634
▁दीवार	-6635
▁structures	-6636
▁जाएगी	-6637
▁causing	-6638
▁eventually	-6639
▁gets	-6640
▁chronic	-6641
▁29	-6642
▁himself	-6643
▁एकमात्र	-6644
▁resource	-6645
▁release	-6646
”,	-6647
बों	-6648
▁About	-6649
▁चारों	-6650
▁तकनीकी	-6651
riculum	-6652
▁दिलचस्प	-6653
▁walk	-6654
▁ocean	-6655
ifically	-6656
▁heavy	-6657
▁साफ	-6658
▁learned	-6659
▁विकार	-6660
force	-6661
▁oxygen	-6662
▁resistance	-6663
▁urban	-6664
▁तत्वों	-6665
▁equal	-6666
▁Roman	-6667
▁अपेक्षा	-6668
▁board	-6669
▁परत	-6670
▁उपयोगकर्ता	-6671
▁Coun	-6672
▁बताते	-6673
▁पकड़	-6674
▁spect	-6675
▁भागी	-6676
cont	-6677
nes	-6678
icip	-6679
▁सांस	-6680
चन	-6681
▁rat	-6682
▁संपत्ति	-6683
▁नस्	-6684
▁horm	-6685
ii	-6686
78	-6687
apers	-6688
ंजी	-6689
▁industrial	-6690
▁favor	-6691
ाक्त	-6692
▁दूध	-6693
ament	-6694
▁metal	-6695
▁अधिनियम	-6696
▁believed	-6697
▁Inter	-6698
▁स्वाद	-6699
▁income	-6700
alt	-6701
▁Di	-6702
inated	-6703
▁becoming	-6704
omb	-6705
▁Br	-6706
▁Hel	-6707
▁खाड़ी	-6708
▁commercial	-6709
2)	-6710
▁significantly	-6711
▁peace	-6712
▁speech	-6713
▁shap	-6714
▁tele	-6715
▁करोड़	-6716
▁बजे	-6717
▁पॉ	-6718
▁cand	-6719
▁trig	-6720
▁burn	-6721
थाम	-6722
▁कार्र	-6723
▁buy	-6724
▁निवेश	-6725
▁Ref	-6726
▁Web	-6727
टक	-6728
▁Sub	-6729
▁requirements	-6730
▁Get	-6731
opy	-6732
▁सकारात्मक	-6733
▁drop	-6734
▁प्रतिरक्षा	-6735
शय	-6736
▁Conf	-6737
▁अद्य	-6738
▁आपने	-6739
men	-6740
▁कांग	-6741
▁फरवरी	-6742
▁संरक्षित	-6743
▁please	-6744
▁विविधता	-6745
▁वंश	-6746
▁plat	-6747
▁उपयोगी	-6748
▁belief	-6749
▁वित्त	-6750
▁gave	-6751
▁vary	-6752
▁injury	-6753
▁regions	-6754
▁office	-6755
cast	-6756
▁reducing	-6757
EC	-6758
▁हवाई	-6759
▁drive	-6760
▁Project	-6761
▁Germany	-6762
▁जोड़ा	-6763
कंप	-6764
▁Law	-6765
▁Net	-6766
▁धारण	-6767
▁changing	-6768
▁partners	-6769
▁हद	-6770
▁धात	-6771
▁Ang	-6772
▁Press	-6773
▁संवेदनशील	-6774
रेलू	-6775
पश्च	-6776
▁Museum	-6777
▁विलियम	-6778
▁seven	-6779
▁अफ्रीका	-6780
▁store	-6781
▁सम्मे	-6782
▁happens	-6783
मेंट	-6784
▁citizens	-6785
▁pollution	-6786
▁slight	-6787
वें	-6788
▁मार्गदर्श	-6789
▁मुद्दों	-6790
▁General	-6791
▁Egypt	-6792
▁रै	-6793
▁experts	-6794
▁Mich	-6795
▁महासा	-6796
सरों	-6797
▁hol	-6798
फर	-6799
▁starting	-6800
EM	-6801
▁France	-6802
▁दिसंबर	-6803
▁evolution	-6804
▁dri	-6805
▁आवास	-6806
▁seeds	-6807
▁TH	-6808
▁विस्फोट	-6809
▁188	-6810
▁infections	-6811
▁bottom	-6812
part	-6813
▁released	-6814
▁आंख	-6815
▁आवा	-6816
▁45	-6817
▁track	-6818
▁एसिड	-6819
▁games	-6820
▁साव	-6821
▁Union	-6822
ager	-6823
▁experim	-6824
▁direction	-6825
iance	-6826
▁कार्रवाई	-6827
rest	-6828
▁Bel	-6829
▁upd	-6830
क्षर	-6831
▁College	-6832
essel	-6833
AL	-6834
▁perspect	-6835
▁immediately	-6836
▁पंख	-6837
▁ऑक्सी	-6838
▁defined	-6839
▁sand	-6840
▁organic	-6841
▁निकट	-6842
ken	-6843
▁bodies	-6844
▁organizations	-6845
▁संयोजन	-6846
▁2020	-6847
▁ready	-6848
99	-6849
▁flood	-6850
ऑक्साइड	-6851
▁Learning	-6852
स्कृतिक	-6853
▁जाँच	-6854
▁fix	-6855
▁vitamin	-6856
▁टीका	-6857
▁पुरस्	-6858
▁decisions	-6859
▁pi	-6860
▁highest	-6861
cking	-6862
▁Social	-6863
जल	-6864
▁involves	-6865
्षिक	-6866
ternal	-6867
बि	-6868
elines	-6869
▁cycle	-6870
ructure	-6871
▁कार्ड	-6872
▁agg	-6873
▁घरेलू	-6874
▁passed	-6875
▁alg	-6876
▁ban	-6877
▁Scient	-6878
ida	-6879
▁pul	-6880
▁Phys	-6881
क्षक	-6882
▁बोर्ड	-6883
▁संदेश	-6884
▁dangerous	-6885
▁Som	-6886
▁landsc	-6887
▁मेल	-6888
▁Tex	-6889
▁hearing	-6890
ेत	-6891
bal	-6892
▁यही	-6893
▁novel	-6894
▁Therefore	-6895
िली	-6896
ologists	-6897
▁Church	-6898
▁setting	-6899
▁divid	-6900
▁stream	-6901
▁initi	-6902
cious	-6903
▁दृष्टि	-6904
▁खी	-6905
▁पाई	-6906
▁शिश	-6907
23	-6908
▁इच्छ	-6909
▁हस्त	-6910
▁clinical	-6911
▁February	-6912
▁separate	-6913
ocr	-6914
मेट	-6915
▁बच्चा	-6916
▁notes	-6917
▁helping	-6918
▁विषाक्त	-6919
▁दस	-6920
▁मानसिक	-6921
▁carried	-6922
▁मिलता	-6923
यान	-6924
▁church	-6925
▁(4	-6926
▁president	-6927
▁कनाडा	-6928
▁finding	-6929
▁बनने	-6930
▁experiment	-6931
▁चीज़	-6932
▁fields	-6933
▁गुर	-6934
र्जी	-6935
▁disorders	-6936
लेन	-6937
▁buildings	-6938
क्सास	-6939
▁नवंबर	-6940
▁connected	-6941
ping	-6942
ession	-6943
▁college	-6944
▁alternative	-6945
AM	-6946
▁पत	-6947
▁विटामिन	-6948
ायक	-6949
▁Like	-6950
▁intellig	-6951
▁हल	-6952
▁चेता	-6953
्यूट	-6954
▁रोकथाम	-6955
▁hear	-6956
▁दिव	-6957
ार्मिक	-6958
▁properly	-6959
टना	-6960
▁पारिस्थितिकी	-6961
ev	-6962
▁exactly	-6963
▁विद्यालय	-6964
▁संयंत्र	-6965
▁encourage	-6966
▁bound	-6967
ographic	-6968
▁vul	-6969
▁male	-6970
▁सर्दियों	-6971
ांतरित	-6972
works	-6973
▁पीढ़	-6974
▁पर्यावरणीय	-6975
met	-6976
▁household	-6977
▁records	-6978
▁trust	-6979
▁एकल	-6980
▁statement	-6981
▁storage	-6982
TTP	-6983
char	-6984
urance	-6985
▁combination	-6986
▁approximately	-6987
▁degrees	-6988
Wh	-6989
▁बदलाव	-6990
▁presented	-6991
▁Organ	-6992
▁feeling	-6993
▁पुल	-6994
▁Two	-6995
▁covered	-6996
▁सेल	-6997
▁श्व	-6998
▁den	-6999
▁film	-7000
▁lesson	-7001
▁conducted	-7002
▁Mary	-7003
▁copy	-7004
▁परिदृ	-7005
ogle	-7006
▁दोष	-7007
▁Pal	-7008
इल	-7009
▁thick	-7010
▁anyone	-7011
▁खोल	-7012
isation	-7013
फ्त	-7014
▁मैक	-7015
emy	-7016
ald	-7017
▁सुबह	-7018
▁विमान	-7019
▁widely	-7020
▁अवर	-7021
▁layer	-7022
▁eggs	-7023
▁professor	-7024
▁estimated	-7025
▁पक्षियों	-7026
▁परिवहन	-7027
▁क्रम	-7028
▁option	-7029
▁सुंदर	-7030
▁clos	-7031
▁धो	-7032
▁सें	-7033
▁विध	-7034
▁mut	-7035
▁प्रश्	-7036
▁tour	-7037
ressive	-7038
▁शिक्षण	-7039
▁technique	-7040
rab	-7041
▁हमारा	-7042
▁replace	-7043
नेस	-7044
▁चंद्रमा	-7045
ांसी	-7046
▁1:	-7047
▁Air	-7048
wards	-7049
▁thr	-7050
▁जमीन	-7051
▁serve	-7052
▁इंजीनियरिंग	-7053
▁मक	-7054
OS	-7055
▁एजेंसी	-7056
्लैंड	-7057
▁Def	-7058
▁Human	-7059
▁sample	-7060
uing	-7061
▁चार्	-7062
▁लड़ाई	-7063
ानु	-7064
ोत्	-7065
▁किनारे	-7066
▁Congress	-7067
▁ज्यादा	-7068
▁उद्ध	-7069
▁तलाश	-7070
▁dyn	-7071
rows	-7072
▁हस्ता	-7073
▁सूजन	-7074
▁sustainable	-7075
▁introduced	-7076
पूर्वक	-7077
▁Ret	-7078
▁participants	-7079
▁रोज	-7080
▁James	-7081
▁grade	-7082
▁दर्शाता	-7083
▁सदस्यों	-7084
▁परिवारों	-7085
▁आकर्षित	-7086
▁ST	-7087
कर्षण	-7088
ह्न	-7089
anging	-7090
▁Phil	-7091
▁कुशल	-7092
▁expert	-7093
▁अधिकारियों	-7094
▁ded	-7095
▁काले	-7096
▁साबित	-7097
▁मंद	-7098
साद	-7099
▁vessel	-7100
▁सात	-7101
▁mag	-7102
▁aspects	-7103
▁manage	-7104
लोड	-7105
▁साहित	-7106
▁Fore	-7107
▁पुनः	-7108
ortunately	-7109
▁meat	-7110
▁विषयों	-7111
▁vegetables	-7112
▁gene	-7113
▁पश्चिम	-7114
▁depending	-7115
रासत	-7116
्ज	-7117
ndrome	-7118
▁prefer	-7119
▁foreign	-7120
▁pick	-7121
▁डाउन	-7122
▁पढ़ें	-7123
र्नल	-7124
PS	-7125
▁एशिया	-7126
▁संबंधी	-7127
▁Both	-7128
osystem	-7129
▁background	-7130
▁स्थानांतरित	-7131
change	-7132
▁दैनिक	-7133
▁engineering	-7134
▁कंपन	-7135
▁अद्यतन	-7136
▁पहल	-7137
▁Western	-7138
▁frequently	-7139
▁संभवतः	-7140
▁numerous	-7141
▁प्रोग्राम	-7142
imens	-7143
▁academic	-7144
▁Development	-7145
टिन	-7146
▁tum	-7147
24	-7148
▁पैन	-7149
▁स्कूलों	-7150
▁linked	-7151
▁प्रयासों	-7152
▁Thus	-7153
▁amounts	-7154
▁sexual	-7155
▁चूह	-7156
▁ब्रिटेन	-7157
ulf	-7158
टल	-7159
▁mathemat	-7160
▁टेक्सास	-7161
▁पेड़ों	-7162
▁खतरनाक	-7163
▁recy	-7164
▁सॉफ्ट	-7165
▁अनि	-7166
▁पड़ा	-7167
▁win	-7168
▁सिखा	-7169
वनी	-7170
▁नींद	-7171
स्कों	-7172
▁Its	-7173
▁परिप	-7174
▁excell	-7175
▁mostly	-7176
▁लंबा	-7177
▁mic	-7178
▁wanted	-7179
omas	-7180
▁divers	-7181
त्त	-7182
▁sav	-7183
▁removed	-7184
▁helped	-7185
▁दुर्लभ	-7186
▁सार	-7187
▁chemicals	-7188
▁Mars	-7189
▁philos	-7190
संत	-7191
▁आंद	-7192
▁anxiety	-7193
▁reality	-7194
▁calc	-7195
▁actual	-7196
▁आते	-7197
▁वार्षिक	-7198
▁assessment	-7199
ognitive	-7200
▁10.	-7201
▁cris	-7202
▁physic	-7203
▁देखना	-7204
▁फ्लोर	-7205
वैज्ञानिक	-7206
▁prepar	-7207
cular	-7208
▁लेना	-7209
▁populations	-7210
atically	-7211
▁बाइ	-7212
icial	-7213
▁profession	-7214
▁ग्रे	-7215
▁रेड	-7216
▁वितरण	-7217
▁conservation	-7218
▁trend	-7219
▁किसान	-7220
▁spot	-7221
▁beautiful	-7222
▁Step	-7223
▁failure	-7224
ांच	-7225
▁advanced	-7226
▁पिता	-7227
▁उसका	-7228
ieties	-7229
▁2004	-7230
ET	-7231
▁7.	-7232
▁output	-7233
▁emphas	-7234
▁धार्मिक	-7235
onds	-7236
place	-7237
▁seed	-7238
▁सम्मेलन	-7239
resp	-7240
फार	-7241
▁experienced	-7242
▁भले	-7243
▁David	-7244
▁नष्ट	-7245
▁message	-7246
rog	-7247
▁दूसरों	-7248
▁moved	-7249
▁phen	-7250
▁कवि	-7251
St	-7252
▁संतुल	-7253
▁annual	-7254
▁जिनका	-7255
▁स्रोतों	-7256
▁स्पेन	-7257
▁letter	-7258
▁neu	-7259
▁connection	-7260
▁classes	-7261
▁observed	-7262
▁ign	-7263
poses	-7264
▁टूट	-7265
खिक	-7266
▁महासागर	-7267
▁शक्तिशाली	-7268
▁resulting	-7269
स्को	-7270
ोलिक	-7271
pan	-7272
ोमा	-7273
▁धीरे	-7274
▁बल	-7275
शीलता	-7276
▁पत्थर	-7277
▁processing	-7278
व्र	-7279
फोर्ड	-7280
▁authors	-7281
▁comfort	-7282
कारात्मक	-7283
▁effectively	-7284
▁आंदोल	-7285
▁वृ	-7286
▁policies	-7287
▁Jewish	-7288
▁आँ	-7289
▁fine	-7290
▁concepts	-7291
▁bud	-7292
▁माँ	-7293
▁Vol	-7294
▁टिप्पणी	-7295
▁violence	-7296
uses	-7297
cers	-7298
▁trou	-7299
▁comprehens	-7300
▁campaign	-7301
omic	-7302
्रोम	-7303
▁muscles	-7304
order	-7305
▁उपस्थिति	-7306
▁Off	-7307
▁डिजिटल	-7308
▁exposed	-7309
▁अर्थव्यव	-7310
▁elimin	-7311
▁emotional	-7312
▁scen	-7313
ped	-7314
▁निजी	-7315
▁Space	-7316
▁characteristics	-7317
▁कव	-7318
unction	-7319
प्ति	-7320
▁performed	-7321
orial	-7322
▁radio	-7323
rant	-7324
▁अंडे	-7325
▁instit	-7326
ंडों	-7327
/20	-7328
rm	-7329
ोटिक	-7330
▁ब्रह	-7331
asion	-7332
▁185	-7333
▁interested	-7334
key	-7335
tical	-7336
▁गा	-7337
▁leads	-7338
▁Mor	-7339
▁flowers	-7340
▁Japanese	-7341
▁कांग्रेस	-7342
▁jour	-7343
▁आदेश	-7344
▁desp	-7345
▁die	-7346
▁pip	-7347
▁फुट	-7348
▁खाते	-7349
▁चेतावनी	-7350
▁pieces	-7351
▁nutrients	-7352
ावली	-7353
▁operations	-7354
ोधित	-7355
ंचाई	-7356
▁pages	-7357
▁vaccine	-7358
ल्य	-7359
▁sac	-7360
erved	-7361
▁upper	-7362
▁बचने	-7363
▁फैल	-7364
▁वयस्कों	-7365
▁रखता	-7366
▁प्रशासन	-7367
▁literature	-7368
▁गोल	-7369
▁चमक	-7370
▁presc	-7371
▁initial	-7372
▁awareness	-7373
▁coal	-7374
फारिश	-7375
▁प्य	-7376
▁gender	-7377
▁संशोधित	-7378
▁lived	-7379
▁manufacture	-7380
▁assum	-7381
urt	-7382
सनीय	-7383
▁संदर्भित	-7384
ias	-7385
ously	-7386
iveness	-7387
▁yellow	-7388
▁सिफारिश	-7389
umn	-7390
▁promote	-7391
▁relationships	-7392
▁कॉपी	-7393
othes	-7394
▁जर्मन	-7395
che	-7396
▁स्थायी	-7397
▁समुदायों	-7398
▁radiation	-7399
▁Class	-7400
zing	-7401
▁प्रव	-7402
▁input	-7403
▁मना	-7404
▁सिल	-7405
▁इंग्लैंड	-7406
ारीख	-7407
▁Texas	-7408
▁Cle	-7409
lim	-7410
antic	-7411
▁contrast	-7412
▁solid	-7413
olved	-7414
श्म	-7415
▁tips	-7416
35	-7417
▁esc	-7418
▁mer	-7419
▁खींच	-7420
▁Mount	-7421
▁internal	-7422
ault	-7423
ishing	-7424
▁reference	-7425
▁प्रकाशन	-7426
▁pal	-7427
▁Spanish	-7428
▁highlight	-7429
ilit	-7430
rum	-7431
▁Sun	-7432
45	-7433
ams	-7434
rosc	-7435
▁काग	-7436
▁looks	-7437
▁शीर्षक	-7438
▁incorpor	-7439
ball	-7440
्मांड	-7441
▁तारीख	-7442
▁square	-7443
▁discover	-7444
erences	-7445
▁adjust	-7446
▁स्मृति	-7447
▁सुपर	-7448
▁grass	-7449
▁कितनी	-7450
gal	-7451
णियों	-7452
▁Post	-7453
▁ple	-7454
▁हजारों	-7455
▁mist	-7456
▁अवसाद	-7457
▁dram	-7458
▁atmosphere	-7459
फा	-7460
▁kill	-7461
▁discussion	-7462
▁Bas	-7463
▁Test	-7464
road	-7465
▁इकाई	-7466
▁जंगली	-7467
▁vulner	-7468
▁अभियान	-7469
▁clearly	-7470
▁Mexico	-7471
▁Further	-7472
▁blog	-7473
▁datab	-7474
▁सेवाओं	-7475
▁विशेषताओं	-7476
▁3,	-7477
वर्तन	-7478
▁Mark	-7479
porary	-7480
विज्ञान	-7481
क्षिक	-7482
▁click	-7483
▁core	-7484
▁ज्ञात	-7485
do	-7486
▁minor	-7487
▁efficiency	-7488
▁150	-7489
raw	-7490
ingly	-7491
amental	-7492
कृष्ट	-7493
▁डेविड	-7494
ंडी	-7495
▁destroy	-7496
▁पेपर	-7497
▁nuclear	-7498
clus	-7499
▁Expl	-7500
▁डो	-7501
▁शल्य	-7502
एफ	-7503
1)	-7504
▁opin	-7505
▁डाइऑक्साइड	-7506
▁counter	-7507
▁हस्तक्षेप	-7508
▁aren	-7509
▁Greek	-7510
▁La	-7511
▁आठ	-7512
▁treatments	-7513
▁reprodu	-7514
व्यक्ति	-7515
roph	-7516
board	-7517
▁पकड़ने	-7518
▁तार	-7519
▁1970	-7520
▁फ़ाइल	-7521
▁consult	-7522
▁mel	-7523
▁Treat	-7524
▁legisl	-7525
ंजन	-7526
▁आपात	-7527
▁concerns	-7528
▁भेज	-7529
▁भविष्यवा	-7530
▁turned	-7531
▁volume	-7532
▁distribution	-7533
▁drinking	-7534
पु	-7535
▁विरासत	-7536
▁भारत	-7537
▁battle	-7538
▁फाइ	-7539
▁दीर्घकालिक	-7540
▁Sk	-7541
गण	-7542
▁articles	-7543
▁round	-7544
▁describe	-7545
▁platform	-7546
▁एंटीब	-7547
▁referred	-7548
▁यौन	-7549
▁Medical	-7550
▁सॉफ्टवेयर	-7551
▁Energy	-7552
▁समृद्ध	-7553
▁spend	-7554
▁transform	-7555
gment	-7556
▁सिस्टम	-7557
▁renew	-7558
▁George	-7559
ंगी	-7560
पि	-7561
▁Through	-7562
▁प्रश्नों	-7563
▁hour	-7564
▁सांस्कृतिक	-7565
▁अग्र	-7566
▁चट्टान	-7567
▁sort	-7568
▁wet	-7569
▁Fol	-7570
▁topics	-7571
ीकृत	-7572
▁पुष्टि	-7573
विन	-7574
▁invent	-7575
▁बीमारियों	-7576
▁volunt	-7577
▁शे	-7578
▁bright	-7579
▁involve	-7580
▁languages	-7581
▁धू	-7582
▁1980	-7583
rete	-7584
▁चाहता	-7585
र्ण	-7586
ophy	-7587
▁island	-7588
▁aid	-7589
▁तीव्र	-7590
ocal	-7591
▁भूकंप	-7592
▁बिता	-7593
▁पंक्ति	-7594
▁Technology	-7595
कंड	-7596
सेल	-7597
▁लॉ	-7598
ded	-7599
▁आराम	-7600
▁contribute	-7601
▁electrical	-7602
▁prepared	-7603
▁ब्रह्मांड	-7604
▁unf	-7605
▁एंज	-7606
▁univers	-7607
▁उत्कृष्ट	-7608
ादा	-7609
▁लेखन	-7610
▁Service	-7611
▁allowing	-7612
▁pric	-7613
▁heard	-7614
▁affects	-7615
▁कारकों	-7616
28	-7617
▁जहाज	-7618
▁सैन्य	-7619
mark	-7620
▁creation	-7621
▁प्रक्रियाओं	-7622
▁परिभाषा	-7623
hetic	-7624
नर	-7625
▁killed	-7626
▁procedure	-7627
▁situations	-7628
▁roll	-7629
▁Rober	-7630
चाप	-7631
tered	-7632
▁faster	-7633
▁White	-7634
udd	-7635
▁डिस्	-7636
▁पांच	-7637
▁Up	-7638
▁Dise	-7639
▁आधे	-7640
▁doub	-7641
▁race	-7642
संख्या	-7643
▁Sy	-7644
▁seek	-7645
▁गृह	-7646
▁2003	-7647
▁उठ	-7648
ressed	-7649
▁vital	-7650
95	-7651
धीरे	-7652
▁सरकारी	-7653
▁Any	-7654
▁advantage	-7655
मार्	-7656
▁उगा	-7657
▁फोन	-7658
▁एलर्जी	-7659
▁defic	-7660
▁Data	-7661
▁अंतर्	-7662
▁improved	-7663
▁notice	-7664
▁pret	-7665
▁Hol	-7666
क्षिप्त	-7667
rations	-7668
▁farmers	-7669
▁दावा	-7670
बेस	-7671
▁conflict	-7672
▁independent	-7673
▁Op	-7674
SA	-7675
▁Ben	-7676
▁credit	-7677
▁noted	-7678
▁Out	-7679
▁Addition	-7680
▁meeting	-7681
▁vehicle	-7682
▁arm	-7683
▁diagnosis	-7684
▁wonder	-7685
▁मैरी	-7686
▁focused	-7687
acing	-7688
▁Island	-7689
▁भारतीय	-7690
▁stars	-7691
▁वर्गी	-7692
आप	-7693
akers	-7694
▁नज़र	-7695
iling	-7696
▁liquid	-7697
▁उन्न	-7698
▁vot	-7699
▁toxic	-7700
▁relevant	-7701
▁continues	-7702
ेज	-7703
▁75	-7704
▁flex	-7705
▁cook	-7706
▁truth	-7707
▁strate	-7708
76	-7709
▁hit	-7710
क्षता	-7711
▁चीजें	-7712
▁strategy	-7713
▁अपरा	-7714
▁diss	-7715
▁synt	-7716
▁spent	-7717
▁कारणों	-7718
कू	-7719
-18	-7720
▁completed	-7721
iverse	-7722
▁विफल	-7723
▁टाइ	-7724
▁उपाय	-7725
▁गर्मियों	-7726
33	-7727
दाता	-7728
standing	-7729
▁Council	-7730
▁explains	-7731
ij	-7732
▁जमा	-7733
enth	-7734
▁Rev	-7735
▁hom	-7736
eria	-7737
▁hop	-7738
▁foss	-7739
ribe	-7740
ags	-7741
▁motor	-7742
▁owners	-7743
▁digest	-7744
▁बाध	-7745
ormally	-7746
▁advice	-7747
▁अध्याय	-7748
▁ठोस	-7749
▁tasks	-7750
uration	-7751
ंदन	-7752
▁signal	-7753
ेदार	-7754
▁Met	-7755
▁शैक्षिक	-7756
▁परीक्षणों	-7757
▁distinct	-7758
▁dro	-7759
पत	-7760
▁क्षति	-7761
र्त	-7762
ागर	-7763
▁धातु	-7764
▁begins	-7765
▁पुरस्कार	-7766
▁emergency	-7767
▁Second	-7768
RE	-7769
▁उल	-7770
▁fruits	-7771
▁shared	-7772
▁तकनीकों	-7773
▁उतना	-7774
निक	-7775
▁अवधारणा	-7776
▁court	-7777
▁smart	-7778
▁AD	-7779
▁principles	-7780
र्फ	-7781
▁lib	-7782
▁आयर	-7783
▁Elect	-7784
▁curriculum	-7785
onic	-7786
▁मिलियन	-7787
▁straight	-7788
▁चुंब	-7789
▁प्रे	-7790
▁reaction	-7791
▁Wind	-7792
्ज़	-7793
▁Find	-7794
▁द्वितीय	-7795
des	-7796
▁territ	-7797
▁आंकड़ों	-7798
▁ecosystem	-7799
▁घु	-7800
iday	-7801
▁particles	-7802
▁पूरक	-7803
व्यमान	-7804
▁बाढ़	-7805
▁moist	-7806
▁Direct	-7807
▁बुद्ध	-7808
▁Disc	-7809
ek	-7810
▁खि	-7811
राबर	-7812
▁News	-7813
▁नकारात्मक	-7814
▁फ्लू	-7815
▁regarding	-7816
▁previously	-7817
▁दिवस	-7818
▁isol	-7819
▁confirm	-7820
▁jobs	-7821
▁wealth	-7822
▁concern	-7823
▁Tur	-7824
िपी	-7825
▁Lord	-7826
acters	-7827
▁संक्षिप्त	-7828
ग्रस्त	-7829
▁Je	-7830
▁Know	-7831
▁genes	-7832
▁determined	-7833
वर्ती	-7834
▁height	-7835
chers	-7836
▁स्नातक	-7837
▁Instead	-7838
▁impacts	-7839
▁haz	-7840
roke	-7841
▁sem	-7842
▁definition	-7843
स्व	-7844
▁faith	-7845
▁operation	-7846
▁bird	-7847
▁करेगी	-7848
▁पात्र	-7849
▁obvious	-7850
gra	-7851
▁keeping	-7852
लिका	-7853
▁drink	-7854
mat	-7855
wood	-7856
▁विनाश	-7857
▁units	-7858
▁स्वच्छ	-7859
▁टुकड़े	-7860
▁sounds	-7861
▁Before	-7862
▁mainly	-7863
▁freedom	-7864
▁Mal	-7865
ST	-7866
▁(5	-7867
isher	-7868
▁Year	-7869
▁kept	-7870
▁Asia	-7871
▁conver	-7872
▁decided	-7873
▁thin	-7874
▁कीमत	-7875
▁2015	-7876
▁चले	-7877
▁motiv	-7878
▁क्रिस्ट	-7879
▁Information	-7880
▁वसंत	-7881
▁traffic	-7882
▁saying	-7883
▁Republic	-7884
▁hospital	-7885
▁Foundation	-7886
म्रपान	-7887
▁operating	-7888
ोसिस	-7889
ोपण	-7890
▁Keep	-7891
▁HIV	-7892
▁जू	-7893
ंदा	-7894
eline	-7895
▁ग्राफ	-7896
▁समग्र	-7897
▁northern	-7898
▁लंबाई	-7899
▁nav	-7900
▁latest	-7901
▁lov	-7902
▁कथ	-7903
▁Have	-7904
Ch	-7905
▁Google	-7906
▁ऊतक	-7907
▁बराबर	-7908
▁अपशिष्ट	-7909
▁song	-7910
▁waters	-7911
▁संगठ	-7912
साइ	-7913
ifying	-7914
▁facts	-7915
▁सूचीबद्ध	-7916
णिज	-7917
umin	-7918
▁lic	-7919
▁oral	-7920
▁कैम	-7921
▁1960	-7922
▁practical	-7923
▁गर्भ	-7924
▁Medicine	-7925
▁अम	-7926
▁Fam	-7927
▁गहरे	-7928
▁party	-7929
▁southern	-7930
▁कपड़े	-7931
▁आयोजित	-7932
▁टेली	-7933
100	-7934
▁ऊपरी	-7935
pat	-7936
▁सारे	-7937
▁kinds	-7938
▁crucial	-7939
भुत	-7940
▁internet	-7941
▁निचले	-7942
▁चाहे	-7943
▁meant	-7944
▁संग्र	-7945
▁अल्प	-7946
ta	-7947
सो	-7948
▁medications	-7949
▁reduction	-7950
oxide	-7951
▁प्रतिभाग	-7952
▁ध्वनि	-7953
za	-7954
▁taught	-7955
▁influen	-7956
▁phone	-7957
▁आंदोलन	-7958
comes	-7959
aturally	-7960
▁served	-7961
ago	-7962
▁excellent	-7963
▁Please	-7964
26	-7965
▁Dist	-7966
▁Old	-7967
bi	-7968
▁mentioned	-7969
▁valu	-7970
▁श्रेणी	-7971
जि	-7972
शि	-7973
▁गहराई	-7974
▁अर्थव्यवस्था	-7975
▁Port	-7976
▁Professor	-7977
▁lose	-7978
▁youth	-7979
▁डर	-7980
ानदार	-7981
▁samples	-7982
▁जुड़ा	-7983
▁उपग्रह	-7984
▁format	-7985
▁36	-7986
▁phase	-7987
▁master	-7988
▁Life	-7989
▁Supp	-7990
ception	-7991
roid	-7992
▁उपभो	-7993
लियों	-7994
▁showing	-7995
▁doll	-7996
▁जोड़ने	-7997
▁nerv	-7998
▁वित्तीय	-7999
▁एल्	-8000
tee	-8001
क्या	-8002
▁grant	-8003
▁helpful	-8004
▁surrounding	-8005
ंडर	-8006
▁घटक	-8007
▁पॉल	-8008
▁यूनि	-8009
▁cere	-8010
ancing	-8011
िडा	-8012
▁cert	-8013
▁ship	-8014
▁कॉपीराइट	-8015
aker	-8016
▁extensive	-8017
rapy	-8018
▁पाउंड	-8019
▁Women	-8020
rastructure	-8021
▁Where	-8022
▁links	-8023
▁संब	-8024
ोलॉजी	-8025
▁परिदृश्य	-8026
बीन	-8027
▁अट	-8028
▁अमेरिकियों	-8029
▁Ev	-8030
▁आक	-8031
▁कहान	-8032
▁kil	-8033
▁हास	-8034
▁accurate	-8035
▁Rich	-8036
▁diam	-8037
▁playing	-8038
▁ग्रंथ	-8039
▁कोय	-8040
▁घरों	-8041
▁Flor	-8042
▁salt	-8043
ॉय	-8044
▁purposes	-8045
roup	-8046
▁Acad	-8047
▁career	-8048
▁जेम्स	-8049
▁god	-8050
▁कक्ष	-8051
▁रणनीति	-8052
▁Lake	-8053
▁cast	-8054
जक	-8055
ado	-8056
▁pu	-8057
▁फ्रै	-8058
▁clim	-8059
▁pregnancy	-8060
inger	-8061
▁director	-8062
▁ideal	-8063
▁potentially	-8064
oyal	-8065
▁characters	-8066
▁ju	-8067
प्रा	-8068
▁श्री	-8069
▁जंगल	-8070
▁lessons	-8071
▁hyper	-8072
▁बनी	-8073
▁Stand	-8074
क्सिको	-8075
ांसीसी	-8076
▁पहुँचा	-8077
▁डेन	-8078
otic	-8079
त्री	-8080
▁जुड़	-8081
AD	-8082
▁send	-8083
गु	-8084
▁official	-8085
▁धूम्रपान	-8086
ya	-8087
▁intended	-8088
▁belong	-8089
▁paint	-8090
वर्ड	-8091
▁circum	-8092
▁कुत्ते	-8093
▁नैतिक	-8094
▁Mart	-8095
▁Sal	-8096
▁ढंग	-8097
ष्ण	-8098
वेल	-8099
going	-8100
▁consequences	-8101
टिक	-8102
▁Hen	-8103
▁इतनी	-8104
▁वाहन	-8105
▁allerg	-8106
atric	-8107
▁न्याय	-8108
▁शांति	-8109
▁wel	-8110
▁Common	-8111
▁बेल	-8112
ायिक	-8113
▁काट	-8114
▁संदेह	-8115
▁fluid	-8116
-10	-8117
हाइट	-8118
▁grown	-8119
▁double	-8120
▁शानदार	-8121
▁सुना	-8122
▁मिश्रण	-8123
▁हाइड्र	-8124
▁सहयोगी	-8125
▁morning	-8126
▁केंद्रीय	-8127
जिंग	-8128
▁regularly	-8129
ंधे	-8130
▁रेडियो	-8131
विश्व	-8132
▁sche	-8133
▁कैरोल	-8134
▁Bay	-8135
▁shar	-8136
igenous	-8137
itz	-8138
▁परीक्षा	-8139
▁संक्रमित	-8140
ेंड	-8141
▁reb	-8142
▁Civil	-8143
ander	-8144
▁जर्नल	-8145
▁हटाने	-8146
▁खाना	-8147
लिक	-8148
ipped	-8149
acific	-8150
▁files	-8151
ributed	-8152
▁हथ	-8153
vision	-8154
ixt	-8155
ificial	-8156
▁institutions	-8157
./	-8158
चल	-8159
घात	-8160
▁Ser	-8161
▁onto	-8162
▁Dem	-8163
▁Saf	-8164
▁inflammation	-8165
▁nit	-8166
▁harvest	-8167
▁attacks	-8168
सिन	-8169
▁girls	-8170
न्	-8171
▁वाणिज	-8172
▁sector	-8173
OT	-8174
▁द्रव्यमान	-8175
▁खगोल	-8176
verty	-8177
▁Those	-8178
▁liver	-8179
▁उजागर	-8180
▁पर्य	-8181
▁deaths	-8182
▁विदेशी	-8183
▁familiar	-8184
espite	-8185
▁rul	-8186
▁65	-8187
▁नाइ	-8188
▁voice	-8189
▁charge	-8190
▁poverty	-8191
▁प्रदूषण	-8192
▁thoughts	-8193
निर्माण	-8194
▁हमला	-8195
▁roots	-8196
▁certainly	-8197
▁gar	-8198
▁शाखा	-8199
oughly	-8200
▁astron	-8201
▁पेर	-8202
हाउस	-8203
alled	-8204
la	-8205
▁Virgin	-8206
▁vast	-8207
▁संबंधों	-8208
▁जिसकी	-8209
▁pun	-8210
▁Mr	-8211
ड्ड	-8212
▁फेफ	-8213
▁1/	-8214
cling	-8215
-7	-8216
▁नवीनतम	-8217
▁primarily	-8218
▁surpris	-8219
▁इंगित	-8220
▁रक्तचाप	-8221
▁uns	-8222
चारिक	-8223
igure	-8224
▁Government	-8225
▁184	-8226
▁Well	-8227
गाह	-8228
▁व्यावसाय	-8229
▁Engine	-8230
▁चू	-8231
down	-8232
ails	-8233
▁Phot	-8234
▁brief	-8235
▁combined	-8236
हारिक	-8237
▁investment	-8238
▁गिन	-8239
▁Bet	-8240
▁जापान	-8241
▁habitat	-8242
rep	-8243
arrow	-8244
▁अनुक्रम	-8245
▁centuries	-8246
▁coord	-8247
▁detailed	-8248
न्व	-8249
▁conv	-8250
▁पहन	-8251
▁फैला	-8252
▁Learn	-8253
astern	-8254
वां	-8255
घर	-8256
▁बौ	-8257
▁शहरों	-8258
▁नमूने	-8259
▁colors	-8260
▁जागर	-8261
▁जुड़ी	-8262
▁conclud	-8263
▁monitoring	-8264
ोह	-8265
तू	-8266
riage	-8267
▁400	-8268
्वीप	-8269
▁Miss	-8270
▁kn	-8271
▁जागरूक	-8272
▁Latin	-8273
▁slightly	-8274
▁छवियों	-8275
▁भा	-8276
▁अपेक्षाकृत	-8277
▁अनुवाद	-8278
्यवाद	-8279
▁Take	-8280
clusion	-8281
म्ब	-8282
▁boost	-8283
▁tested	-8284
teries	-8285
▁मध्यम	-8286
▁ट्यूमर	-8287
▁recorded	-8288
▁collected	-8289
▁wear	-8290
athy	-8291
▁bow	-8292
▁specifically	-8293
▁supported	-8294
तीत	-8295
▁protected	-8296
▁वैकल्प	-8297
▁अमेरिकन	-8298
▁बू	-8299
▁west	-8300
▁वैकल्पिक	-8301
▁मनोर	-8302
▁समर्प	-8303
▁Central	-8304
▁Mac	-8305
▁hundreds	-8306
▁frequency	-8307
▁bank	-8308
ounced	-8309
▁घूम	-8310
▁depends	-8311
▁समस्याएं	-8312
▁formation	-8313
▁Paul	-8314
▁प्लास्टिक	-8315
▁फ्रांसीसी	-8316
▁deliver	-8317
▁अके	-8318
▁शहरी	-8319
ishes	-8320
▁bones	-8321
▁Ber	-8322
▁मेरा	-8323
▁अधिकतम	-8324
▁feelings	-8325
36	-8326
nic	-8327
▁motion	-8328
unk	-8329
▁इसने	-8330
itage	-8331
▁reached	-8332
▁संकेतों	-8333
▁रहें	-8334
▁inches	-8335
▁ingred	-8336
▁चिप	-8337
▁perman	-8338
▁जनसंख्या	-8339
▁disp	-8340
▁Britain	-8341
▁valuable	-8342
▁Environmental	-8343
▁typical	-8344
ोवा	-8345
west	-8346
▁पीएच	-8347
othing	-8348
राह	-8349
▁stone	-8350
▁परिष	-8351
▁flat	-8352
▁CD	-8353
▁पोषक	-8354
▁शुरुआती	-8355
▁mobile	-8356
▁interpret	-8357
▁जनता	-8358
▁बचाने	-8359
▁सिंड	-8360
▁download	-8361
▁infected	-8362
▁मानकों	-8363
▁advance	-8364
▁crops	-8365
▁instruction	-8366
27	-8367
och	-8368
erals	-8369
▁ages	-8370
enses	-8371
▁periods	-8372
▁मंत्र	-8373
▁offered	-8374
▁जीवाश्म	-8375
▁Jer	-8376
▁finally	-8377
▁perspective	-8378
▁Studies	-8379
▁मजबूर	-8380
▁क्रिया	-8381
▁component	-8382
ारक	-8383
▁fle	-8384
▁sen	-8385
▁AI	-8386
मैं	-8387
▁technical	-8388
▁एप	-8389
▁responsibility	-8390
हीत	-8391
स्ती	-8392
aks	-8393
▁तैयारी	-8394
▁grand	-8395
▁subjects	-8396
▁उन्नत	-8397
▁identity	-8398
▁वाक	-8399
वित्र	-8400
▁सोने	-8401
▁2001	-8402
▁मिलती	-8403
▁मेरी	-8404
RO	-8405
▁residents	-8406
uted	-8407
▁Land	-8408
▁manner	-8409
▁adding	-8410
अन	-8411
▁कोर	-8412
▁Atl	-8413
▁Work	-8414
CC	-8415
लेकिन	-8416
धिकारिक	-8417
▁resist	-8418
▁चिह्न	-8419
▁driving	-8420
▁snow	-8421
▁ग्राह	-8422
इयों	-8423
▁घात	-8424
▁lifest	-8425
anges	-8426
celer	-8427
स्पर्	-8428
▁phenomen	-8429
ायल	-8430
▁crisis	-8431
▁religion	-8432
▁Lou	-8433
▁काल	-8434
▁संग्रहीत	-8435
▁explained	-8436
▁indicate	-8437
▁उत्ते	-8438
▁dental	-8439
िज्म	-8440
▁syndrome	-8441
▁परेशान	-8442
स्तित्व	-8443
eal	-8444
eters	-8445
osite	-8446
▁stem	-8447
▁संबोधित	-8448
▁secret	-8449
▁appoint	-8450
▁Sea	-8451
▁डेटाबेस	-8452
oke	-8453
▁परिवर्तनों	-8454
ोरी	-8455
▁Fre	-8456
▁क्षेत्रीय	-8457
▁letters	-8458
ye	-8459
▁Wild	-8460
▁प्लेट	-8461
aughter	-8462
ossible	-8463
RI	-8464
▁Sen	-8465
▁Writ	-8466
▁vent	-8467
▁आक्रामक	-8468
▁prepare	-8469
▁कब्	-8470
ष्कार	-8471
38	-8472
▁leader	-8473
EL	-8474
vis	-8475
ोटा	-8476
▁proposed	-8477
▁introduction	-8478
▁Vis	-8479
▁enhance	-8480
▁आंशिक	-8481
▁Despite	-8482
▁despite	-8483
▁आदर्श	-8484
▁अभिलेख	-8485
alle	-8486
▁Library	-8487
▁comment	-8488
▁Micro	-8489
▁visible	-8490
▁walls	-8491
▁cognitive	-8492
rence	-8493
bing	-8494
▁refers	-8495
ूठ	-8496
▁Ste	-8497
▁maximum	-8498
▁Last	-8499
▁Sum	-8500
▁brown	-8501
▁expensive	-8502
▁computers	-8503
rier	-8504
्ठा	-8505
iced	-8506
तल	-8507
▁cars	-8508
▁प्रतीक	-8509
ras	-8510
▁8.	-8511
oper	-8512
tion	-8513
▁1,000	-8514
▁steel	-8515
▁train	-8516
ड़कियों	-8517
▁महीनों	-8518
▁31	-8519
▁quar	-8520
▁पत्ते	-8521
सिटी	-8522
▁साथी	-8523
ensus	-8524
▁Thomas	-8525
▁ऑक्सीजन	-8526
▁कानूनी	-8527
▁infrastructure	-8528
umber	-8529
▁raised	-8530
▁आकाशग	-8531
▁फें	-8532
ework	-8533
active	-8534
संग	-8535
▁cardi	-8536
anguage	-8537
▁नियमों	-8538
▁injuries	-8539
▁Add	-8540
▁dial	-8541
▁कागज	-8542
▁थॉ	-8543
▁भविष्यवाणी	-8544
▁ऑट	-8545
▁Control	-8546
▁Mass	-8547
▁decrease	-8548
-9	-8549
inn	-8550
▁satell	-8551
▁largely	-8552
ज़ी	-8553
icks	-8554
▁Ir	-8555
▁millions	-8556
▁डाउनलोड	-8557
ulin	-8558
▁stret	-8559
▁Histor	-8560
▁measured	-8561
ंघ	-8562
▁लाने	-8563
BC	-8564
iated	-8565
▁पालतू	-8566
नाम	-8567
▁bill	-8568
▁greatest	-8569
▁purs	-8570
▁अभिव्यक्ति	-8571
tenance	-8572
▁wildlife	-8573
▁मोटाप	-8574
स्का	-8575
rich	-8576
▁परियोजनाओं	-8577
▁revolution	-8578
▁जर	-8579
▁सूखे	-8580
▁इमारत	-8581
well	-8582
▁किलो	-8583
▁घाटी	-8584
▁लेखकों	-8585
▁शासन	-8586
▁लंदन	-8587
▁अधिकारी	-8588
point	-8589
ंपरा	-8590
▁इतने	-8591
▁consists	-8592
▁expression	-8593
▁otherwise	-8594
▁increasingly	-8595
▁happened	-8596
विदों	-8597
free	-8598
▁biological	-8599
▁healthcare	-8600
▁abuse	-8601
▁looked	-8602
▁Que	-8603
▁उत्पत्ति	-8604
▁रोब	-8605
▁shel	-8606
▁आवश्यकताओं	-8607
▁लगे	-8608
uls	-8609
▁व्यावहारिक	-8610
▁creative	-8611
▁floor	-8612
▁Power	-8613
▁विशेषज्ञों	-8614
▁Mil	-8615
3)	-8616
▁suffering	-8617
▁Who	-8618
gl	-8619
▁बगी	-8620
▁discovery	-8621
▁परिषद	-8622
▁pil	-8623
▁studied	-8624
VID	-8625
▁शुक्र	-8626
▁आधिकारिक	-8627
▁proteins	-8628
▁fertil	-8629
ria	-8630
▁बाधा	-8631
▁governments	-8632
▁rub	-8633
▁Book	-8634
▁naturally	-8635
▁medication	-8636
▁couple	-8637
यात	-8638
▁करनी	-8639
▁km	-8640
AP	-8641
▁laun	-8642
▁businesses	-8643
▁fundamental	-8644
▁180	-8645
▁suffer	-8646
▁wire	-8647
▁Franc	-8648
▁facilities	-8649
▁सब्ज	-8650
▁आकर्षक	-8651
rating	-8652
▁भौतिकी	-8653
▁talking	-8654
▁therm	-8655
▁चित्रित	-8656
वारिक	-8657
िस्तान	-8658
nel	-8659
च्छिक	-8660
▁अनाज	-8661
▁forced	-8662
osa	-8663
berg	-8664
ुदायिक	-8665
orith	-8666
ूली	-8667
resents	-8668
▁warming	-8669
ascular	-8670
▁spl	-8671
’.	-8672
▁कब	-8673
▁raise	-8674
▁मुफ्त	-8675
▁व्यावसायिक	-8676
▁सूच	-8677
▁mort	-8678
▁खुला	-8679
▁32	-8680
▁tiny	-8681
▁लिंग	-8682
▁Carol	-8683
▁स्टेशन	-8684
▁vehicles	-8685
▁pig	-8686
▁moon	-8687
▁फाउंड	-8688
▁Follow	-8689
▁वर्षा	-8690
निवेश	-8691
▁दशकों	-8692
▁Middle	-8693
▁187	-8694
पुट	-8695
▁यूनिवर्	-8696
▁Bur	-8697
▁sick	-8698
▁शुद्ध	-8699
igation	-8700
▁अपराध	-8701
▁संचालित	-8702
mas	-8703
▁Design	-8704
▁मान्यता	-8705
▁solve	-8706
▁antibiot	-8707
ोथ	-8708
ffee	-8709
▁Cam	-8710
ario	-8711
▁न्या	-8712
▁officials	-8713
▁east	-8714
▁settle	-8715
▁ब्लैक	-8716
fall	-8717
▁instrument	-8718
ुड	-8719
▁औद्योग	-8720
▁Pacific	-8721
▁manufacturing	-8722
▁2002	-8723
omach	-8724
▁od	-8725
▁पेय	-8726
▁landscape	-8727
पाद	-8728
▁goods	-8729
▁containing	-8730
ोल्ट	-8731
ava	-8732
▁simpl	-8733
DF	-8734
inent	-8735
त्कार	-8736
▁तरंग	-8737
▁depth	-8738
▁gal	-8739
▁played	-8740
▁explan	-8741
▁forests	-8742
▁निर्माता	-8743
ventional	-8744
anes	-8745
▁recovery	-8746
▁सच	-8747
-12	-8748
ague	-8749
lers	-8750
▁प्रतिस्पर्	-8751
▁nor	-8752
▁felt	-8753
▁answers	-8754
▁occurred	-8755
कट्ठा	-8756
▁immig	-8757
▁इंड	-8758
▁Good	-8759
istan	-8760
▁Exper	-8761
▁श्रमिक	-8762
▁AN	-8763
▁dust	-8764
?”	-8765
agers	-8766
col	-8767
▁fort	-8768
▁पोर्ट	-8769
▁sed	-8770
▁rapidly	-8771
▁Florida	-8772
▁hunt	-8773
▁sides	-8774
▁पार्	-8775
▁कच	-8776
▁extract	-8777
▁https	-8778
▁लगाना	-8779
▁वनस्प	-8780
▁divided	-8781
▁pictures	-8782
▁employees	-8783
▁controlled	-8784
टरी	-8785
▁gall	-8786
▁whom	-8787
▁syn	-8788
▁recip	-8789
▁भंडारण	-8790
▁Sym	-8791
▁external	-8792
▁improving	-8793
सीय	-8794
ga	-8795
▁ईसाई	-8796
▁भूख	-8797
▁park	-8798
olester	-8799
▁touch	-8800
▁सिंड्रोम	-8801
osen	-8802
▁घातक	-8803
▁Bre	-8804
▁सामुदायिक	-8805
▁रॉबर्ट	-8806
▁औप	-8807
▁खिल	-8808
MS	-8809
▁funding	-8810
▁बनाएँ	-8811
iest	-8812
▁nations	-8813
▁secure	-8814
न्स	-8815
बुक	-8816
mp	-8817
▁glob	-8818
▁बाकी	-8819
▁diversity	-8820
▁agricultural	-8821
▁represents	-8822
▁prices	-8823
▁Cath	-8824
▁pump	-8825
▁प्रिंट	-8826
▁sensitive	-8827
ndom	-8828
▁दोहरा	-8829
▁extent	-8830
▁ble	-8831
करी	-8832
ंव	-8833
▁Note	-8834
ushing	-8835
▁घों	-8836
ota	-8837
▁भाष	-8838
▁परिचित	-8839
▁generate	-8840
▁फाउंडेशन	-8841
▁समझौ	-8842
▁appearance	-8843
▁इकट्ठा	-8844
▁वर्जिन	-8845
▁leaving	-8846
▁outcomes	-8847
▁देंगे	-8848
▁धन्यवाद	-8849
▁III	-8850
▁western	-8851
▁ज्यादातर	-8852
▁सहयोगियों	-8853
▁Mem	-8854
▁Yet	-8855
▁prevention	-8856
▁उल्लेखनीय	-8857
▁starts	-8858
▁Prov	-8859
▁doctors	-8860
▁routine	-8861
ज्ञा	-8862
▁metab	-8863
▁एकीकृत	-8864
व्या	-8865
▁छोड़ने	-8866
▁Home	-8867
▁firm	-8868
▁धारणा	-8869
▁lik	-8870
▁Robert	-8871
▁closely	-8872
olesterol	-8873
भावस्था	-8874
ael	-8875
▁Fact	-8876
▁accompl	-8877
गार	-8878
▁निश	-8879
leg	-8880
▁neut	-8881
▁horse	-8882
▁leaf	-8883
▁trial	-8884
▁Ext	-8885
▁सावधानी	-8886
संस्	-8887
▁रास्ते	-8888
▁minimum	-8889
▁harmful	-8890
▁उत्पादक	-8891
▁station	-8892
olute	-8893
▁sufficient	-8894
▁follows	-8895
▁worldwide	-8896
ूत	-8897
▁Whe	-8898
▁Court	-8899
▁approaches	-8900
▁अवशो	-8901
▁guidelines	-8902
7)	-8903
सला	-8904
जूदा	-8905
being	-8906
▁continuous	-8907
▁Such	-8908
▁Care	-8909
▁Tem	-8910
▁गाइड	-8911
▁आलो	-8912
▁पारिवारिक	-8913
चारी	-8914
▁अतीत	-8915
वार्य	-8916
olars	-8917
▁sports	-8918
▁Nature	-8919
▁intake	-8920
▁लेबल	-8921
ctic	-8922
▁regul	-8923
29	-8924
▁library	-8925
▁Sol	-8926
ामीण	-8927
lar	-8928
ht	-8929
पानी	-8930
▁nan	-8931
▁आपदा	-8932
vironments	-8933
▁immun	-8934
▁अस्तित्व	-8935
▁4,	-8936
▁2016	-8937
atever	-8938
▁Check	-8939
▁massive	-8940
▁sets	-8941
▁कठिना	-8942
▁concerned	-8943
▁Diff	-8944
▁परंपरा	-8945
▁Click	-8946
▁label	-8947
▁networks	-8948
▁procedures	-8949
▁घन	-8950
itness	-8951
▁ट्रे	-8952
▁behaviour	-8953
ैप	-8954
▁मानते	-8955
hi	-8956
▁मूर्	-8957
aser	-8958
▁Sl	-8959
rian	-8960
्राव	-8961
▁सैनिकों	-8962
▁PC	-8963
▁क्रॉस	-8964
▁एट	-8965
itors	-8966
्क	-8967
▁chann	-8968
▁rural	-8969
▁Sam	-8970
esity	-8971
▁Management	-8972
utive	-8973
▁phr	-8974
stream	-8975
▁corresp	-8976
▁Bat	-8977
▁Lab	-8978
मिथ	-8979
▁Global	-8980
▁disapp	-8981
लांट	-8982
▁मंच	-8983
▁rein	-8984
▁choices	-8985
▁elev	-8986
34	-8987
▁धु	-8988
▁पार्क	-8989
▁courses	-8990
▁professionals	-8991
inate	-8992
▁अनुमानित	-8993
ंख्य	-8994
cules	-8995
▁HTTP	-8996
▁title	-8997
दल	-8998
which	-8999
▁kit	-9000
▁रेल	-9001
चारियों	-9002
▁sky	-9003
abric	-9004
▁ग्री	-9005
▁Sometimes	-9006
▁worse	-9007
▁मौजूदा	-9008
▁Del	-9009
▁चरम	-9010
▁Jews	-9011
▁band	-9012
▁chart	-9013
oom	-9014
▁2:	-9015
▁आर्	-9016
▁Nor	-9017
long	-9018
ville	-9019
▁Arab	-9020
▁Id	-9021
▁beneficial	-9022
▁readers	-9023
ैट	-9024
TM	-9025
faces	-9026
stood	-9027
▁remind	-9028
▁मुद्दे	-9029
▁fif	-9030
▁battery	-9031
जिस्ट	-9032
▁गर्भावस्था	-9033
agues	-9034
▁बांध	-9035
inations	-9036
▁brother	-9037
▁diverse	-9038
▁prem	-9039
▁substance	-9040
▁window	-9041
▁database	-9042
CS	-9043
bra	-9044
▁होनी	-9045
▁fill	-9046
▁फ्लोरिडा	-9047
▁अनुश	-9048
▁Econom	-9049
state	-9050
▁minim	-9051
▁medium	-9052
▁survive	-9053
▁त्रुट	-9054
▁photos	-9055
hips	-9056
▁कर्मचारियों	-9057
roc	-9058
▁अश्व	-9059
lements	-9060
van	-9061
▁पवित्र	-9062
पत्र	-9063
iled	-9064
▁सिर्फ	-9065
सु	-9066
▁pretty	-9067
▁अनुपात	-9068
ामर्श	-9069
▁स्कॉट	-9070
▁intelligence	-9071
▁recognize	-9072
▁Isl	-9073
▁tun	-9074
▁Natural	-9075
▁Commission	-9076
▁Cre	-9077
▁interview	-9078
osc	-9079
▁व्यवस्थित	-9080
ल्क	-9081
▁गू	-9082
hma	-9083
पश्चिम	-9084
▁ड्राइ	-9085
▁Nav	-9086
CO	-9087
▁request	-9088
▁Though	-9089
▁studying	-9090
pping	-9091
TS	-9092
ेक्ट	-9093
रीय	-9094
▁बनाती	-9095
▁Rad	-9096
केल	-9097
▁lots	-9098
rolog	-9099
▁museum	-9100
▁tried	-9101
▁ग्रामीण	-9102
▁छिप	-9103
flow	-9104
▁औद्योगिक	-9105
tr	-9106
asive	-9107
▁Only	-9108
▁comprehensive	-9109
▁cloud	-9110
▁stages	-9111
▁Researchers	-9112
▁stored	-9113
▁अनुरूप	-9114
▁marine	-9115
▁agriculture	-9116
ibl	-9117
▁साहित्य	-9118
▁Long	-9119
▁producing	-9120
▁recognized	-9121
▁(6	-9122
्हें	-9123
▁nurs	-9124
▁परामर्श	-9125
विर	-9126
anch	-9127
▁sud	-9128
▁views	-9129
▁happy	-9130
▁existence	-9131
▁पाद	-9132
▁Psych	-9133
▁normally	-9134
▁movements	-9135
▁("	-9136
apping	-9137
asure	-9138
▁Ess	-9139
▁माय	-9140
र्द्र	-9141
▁खुराक	-9142
▁documents	-9143
▁biggest	-9144
▁बंदर	-9145
▁Det	-9146
▁गठन	-9147
▁creates	-9148
▁न्याया	-9149
▁catch	-9150
▁apart	-9151
▁sou	-9152
▁भंडार	-9153
हीन	-9154
▁1950	-9155
▁twice	-9156
▁waves	-9157
▁यूनिवर्सिटी	-9158
सास	-9159
▁tal	-9160
▁फूलों	-9161
थे	-9162
▁Kore	-9163
▁rail	-9164
▁du	-9165
▁algorith	-9166
▁अनिवार्य	-9167
raction	-9168
▁चेहरे	-9169
▁आर्क	-9170
▁जाएंगे	-9171
ब्बे	-9172
▁देखी	-9173
▁engage	-9174
▁प्रजातियाँ	-9175
ropical	-9176
▁substant	-9177
▁Review	-9178
▁random	-9179
▁stomach	-9180
▁समर्पित	-9181
▁रिच	-9182
▁colour	-9183
▁Att	-9184
▁कहता	-9185
▁inject	-9186
▁देखे	-9187
▁transition	-9188
▁कटाई	-9189
▁Early	-9190
▁remained	-9191
abul	-9192
▁चालक	-9193
▁wants	-9194
▁gather	-9195
▁Disease	-9196
▁era	-9197
▁ढां	-9198
ester	-9199
▁grav	-9200
zy	-9201
▁Bible	-9202
▁speaking	-9203
▁फिट	-9204
▁काली	-9205
88	-9206
▁आवि	-9207
▁satis	-9208
क्व	-9209
फ्र	-9210
▁describes	-9211
ari	-9212
what	-9213
▁calcium	-9214
▁निर्मित	-9215
▁suggested	-9216
▁मनुष्य	-9217
▁lifestyle	-9218
▁advoc	-9219
▁नियु	-9220
▁Ken	-9221
▁listed	-9222
▁experiments	-9223
ION	-9224
▁environments	-9225
▁gum	-9226
▁निष्कर्षों	-9227
▁tow	-9228
▁यौग	-9229
▁दृढ़	-9230
ेंज	-9231
▁fr	-9232
▁secondary	-9233
▁chain	-9234
izer	-9235
लोरी	-9236
▁san	-9237
tage	-9238
▁रोश	-9239
▁dent	-9240
▁किता	-9241
▁उत्सा	-9242
ny	-9243
▁suitable	-9244
▁incl	-9245
▁तरफ	-9246
field	-9247
▁मौत	-9248
▁मोटर	-9249
ads	-9250
▁selected	-9251
fe	-9252
▁दोप	-9253
▁plays	-9254
▁edge	-9255
▁इंजन	-9256
▁sudden	-9257
▁दोपहर	-9258
▁आर्द्र	-9259
▁pull	-9260
▁portion	-9261
▁हल्के	-9262
▁THE	-9263
▁narrow	-9264
▁दस्तावेज़	-9265
▁कमा	-9266
▁जर्मनी	-9267
ायोजित	-9268
रेखा	-9269
ING	-9270
▁journey	-9271
▁वाणिज्यिक	-9272
पै	-9273
▁mamm	-9274
uilding	-9275
▁enable	-9276
▁sweet	-9277
▁decline	-9278
▁Ter	-9279
▁Mont	-9280
▁childhood	-9281
4)	-9282
▁sod	-9283
▁Labor	-9284
▁प्रशांत	-9285
▁अंश	-9286
▁अधिकारों	-9287
▁COVID	-9288
▁flight	-9289
▁BC	-9290
▁गठ	-9291
▁precise	-9292
ibilities	-9293
band	-9294
▁wife	-9295
▁जड़	-9296
▁calls	-9297
▁Pub	-9298
▁समित	-9299
If	-9300
▁Army	-9301
▁index	-9302
▁remote	-9303
▁survival	-9304
▁Time	-9305
▁कितने	-9306
inant	-9307
बु	-9308
▁originally	-9309
▁sin	-9310
▁निवासी	-9311
▁युवाओं	-9312
▁capable	-9313
▁चुना	-9314
normal	-9315
▁प्रथम	-9316
▁maintenance	-9317
32	-9318
eper	-9319
▁aqu	-9320
▁अध्यक्ष	-9321
idden	-9322
▁मकई	-9323
्वान	-9324
▁रहस्य	-9325
▁समन्व	-9326
▁पृष्ठभूमि	-9327
▁argument	-9328
▁डू	-9329
▁decade	-9330
▁narr	-9331
▁tail	-9332
▁Virginia	-9333
▁dream	-9334
िनो	-9335
10.	-9336
▁Cancer	-9337
▁unlike	-9338
▁afford	-9339
▁Ocean	-9340
▁slowly	-9341
पाल	-9342
▁flav	-9343
▁रोमा	-9344
▁insects	-9345
▁pray	-9346
▁justice	-9347
▁नमूना	-9348
▁domestic	-9349
▁possibly	-9350
ache	-9351
▁alt	-9352
asp	-9353
▁voc	-9354
▁हेन	-9355
olve	-9356
▁Study	-9357
▁adequ	-9358
▁habits	-9359
▁tea	-9360
्वितीय	-9361
▁stick	-9362
▁authority	-9363
▁वायुमंडल	-9364
word	-9365
▁हॉ	-9366
rors	-9367
▁लैटिन	-9368
▁Haw	-9369
▁नर	-9370
▁paid	-9371
/0	-9372
▁acceler	-9373
▁सेकंड	-9374
▁Canadian	-9375
▁खुले	-9376
▁Columb	-9377
▁fossil	-9378
▁skill	-9379
▁निवासियों	-9380
हाई	-9381
▁महिलाएं	-9382
▁ठंडा	-9383
▁budget	-9384
▁breathing	-9385
▁हार्म	-9386
▁apparent	-9387
39	-9388
net	-9389
िर्	-9390
▁संकट	-9391
▁programming	-9392
▁Climate	-9393
▁IN	-9394
▁कविता	-9395
भु	-9396
▁weap	-9397
▁closed	-9398
▁नर्स	-9399
▁fly	-9400
▁ब्रे	-9401
▁monitor	-9402
othe	-9403
ंटर	-9404
जेंट	-9405
▁नाट	-9406
▁concentration	-9407
गम	-9408
▁valid	-9409
▁filter	-9410
▁facilit	-9411
स्की	-9412
▁Free	-9413
िबंध	-9414
▁Dig	-9415
▁आँख	-9416
िसिन	-9417
▁cholesterol	-9418
5%	-9419
ॉन्स	-9420
▁apprec	-9421
▁Finally	-9422
▁सहमत	-9423
▁Russian	-9424
▁बनता	-9425
▁consid	-9426
▁Jose	-9427
▁produces	-9428
िक्	-9429
राज्य	-9430
▁noise	-9431
▁volunte	-9432
▁Cy	-9433
▁walking	-9434
▁दुक	-9435
▁कर्मचारी	-9436
▁खनिज	-9437
▁impossible	-9438
▁generated	-9439
▁stock	-9440
▁interests	-9441
▁greenhouse	-9442
ashion	-9443
US	-9444
ects	-9445
ंत्रिक	-9446
▁fasc	-9447
▁इच्छा	-9448
ूंकि	-9449
▁हरे	-9450
▁poet	-9451
▁Russia	-9452
pass	-9453
▁discussed	-9454
▁झा	-9455
▁truly	-9456
▁Charles	-9457
▁Rights	-9458
▁drawing	-9459
▁returned	-9460
▁mit	-9461
▁असं	-9462
▁Office	-9463
▁candid	-9464
▁वनस्पति	-9465
▁परिवर्तित	-9466
▁traum	-9467
▁appeared	-9468
win	-9469
▁fract	-9470
▁trad	-9471
▁खर	-9472
▁सिद्धांतों	-9473
▁optim	-9474
▁निहित	-9475
ca	-9476
चु	-9477
▁decide	-9478
▁ध्र	-9479
▁वर्जिनिया	-9480
▁List	-9481
▁पीने	-9482
▁पीढ़ी	-9483
▁revealed	-9484
▁Henry	-9485
▁बढ़ता	-9486
▁वाक्य	-9487
डब्ल्यू	-9488
rants	-9489
▁molecules	-9490
▁तस्वीरें	-9491
कटिबंध	-9492
▁neighb	-9493
कटिबंधीय	-9494
ष्णकटिबंधीय	-9495
▁workshe	-9496
▁mountain	-9497
▁myth	-9498
▁wave	-9499
▁soldiers	-9500
▁स्कैन	-9501
▁ऊंचाई	-9502
▁mild	-9503
▁storm	-9504
▁Emp	-9505
▁teen	-9506
▁Cat	-9507
▁vessels	-9508
▁निपटने	-9509
▁ऑर्	-9510
▁रहती	-9511
▁seeing	-9512
ona	-9513
▁pup	-9514
ायोटिक	-9515
▁fiber	-9516
▁उद्धरण	-9517
▁रोशनी	-9518
▁फेफड़ों	-9519
▁electronic	-9520
▁www	-9521
azing	-9522
▁supplement	-9523
ेंद	-9524
▁Chem	-9525
राने	-9526
▁Louis	-9527
▁handle	-9528
लयों	-9529
▁कंपनियों	-9530
▁श्रम	-9531
ivalent	-9532
प्रति	-9533
▁Forest	-9534
prise	-9535
inating	-9536
▁sharing	-9537
▁चा	-9538
▁drain	-9539
▁leadership	-9540
▁स्थलों	-9541
▁हार्मोन	-9542
▁sentence	-9543
मार्ग	-9544
mic	-9545
क्ल	-9546
▁इलेक्ट्रॉनिक	-9547
▁cart	-9548
▁knew	-9549
cel	-9550
▁nerve	-9551
▁consumers	-9552
65	-9553
▁रोमन	-9554
▁locations	-9555
ून्य	-9556
▁Start	-9557
▁shell	-9558
mary	-9559
▁छेद	-9560
अमे	-9561
▁9.	-9562
▁अवशेष	-9563
▁camera	-9564
▁fewer	-9565
▁closer	-9566
▁क्ला	-9567
▁plate	-9568
▁assemb	-9569
CT	-9570
▁pp	-9571
▁acids	-9572
ुमक्ख	-9573
▁बॉक्स	-9574
▁smoke	-9575
▁chapter	-9576
ypes	-9577
▁जानी	-9578
▁pure	-9579
ka	-9580
▁कू	-9581
▁universe	-9582
▁Pract	-9583
▁figures	-9584
▁आश्चर्यजनक	-9585
▁proport	-9586
▁द्वि	-9587
▁cultiv	-9588
▁emotions	-9589
द्भुत	-9590
',	-9591
▁स्क्रीन	-9592
▁dedicated	-9593
37	-9594
णुओं	-9595
▁आकलन	-9596
▁Smith	-9597
olf	-9598
ogue	-9599
▁निभा	-9600
aria	-9601
▁smoking	-9602
▁झु	-9603
orter	-9604
▁coffee	-9605
▁contem	-9606
▁successfully	-9607
▁claims	-9608
▁accounts	-9609
▁अद्वितीय	-9610
▁cutting	-9611
▁परिचय	-9612
▁आविष्कार	-9613
▁रचनात्मक	-9614
▁प्रदर्शनी	-9615
▁2017	-9616
▁communicate	-9617
▁exchange	-9618
::	-9619
चक	-9620
▁Ill	-9621
▁tells	-9622
imer	-9623
iology	-9624
▁भाई	-9625
▁स्न	-9626
▁Gold	-9627
ston	-9628
▁एयर	-9629
▁आपातकालीन	-9630
alysis	-9631
घटना	-9632
▁Group	-9633
▁Federal	-9634
▁agencies	-9635
▁respir	-9636
▁reader	-9637
▁distingu	-9638
▁signals	-9639
▁बैंक	-9640
▁वर्णित	-9641
")	-9642
▁audience	-9643
▁entirely	-9644
▁aer	-9645
▁param	-9646
▁army	-9647
▁papers	-9648
▁Color	-9649
द्रा	-9650
▁?	-9651
▁एकड़	-9652
▁subsequ	-9653
▁Ham	-9654
▁flo	-9655
▁मेन	-9656
war	-9657
▁Bro	-9658
नतम	-9659
▁मार्गदर्शन	-9660
▁gun	-9661
▁Does	-9662
▁tall	-9663
▁filled	-9664
▁चूहों	-9665
▁broken	-9666
▁legs	-9667
▁carefully	-9668
सेफ	-9669
▁बहस	-9670
▁dioxide	-9671
ॉर्म	-9672
▁व्	-9673
▁कैल	-9674
▁prison	-9675
▁Ca	-9676
▁Vict	-9677
▁रहना	-9678
ipping	-9679
▁गुर्द	-9680
▁achieved	-9681
ifies	-9682
▁principle	-9683
▁48	-9684
▁टाइप	-9685
▁opening	-9686
born	-9687
▁taste	-9688
ictionary	-9689
lets	-9690
▁बताता	-9691
▁colleagues	-9692
▁ईमेल	-9693
▁cats	-9694
क्ष्यों	-9695
▁चिह्नित	-9696
▁vulnerable	-9697
▁तत्	-9698
▁village	-9699
98	-9700
zen	-9701
▁उद्देश्यों	-9702
▁circumst	-9703
oral	-9704
▁machines	-9705
▁pref	-9706
▁सत्र	-9707
▁Creat	-9708
▁Teac	-9709
▁mere	-9710
वह	-9711
▁ऑस्ट	-9712
▁Rob	-9713
▁Top	-9714
▁fabric	-9715
▁लिखने	-9716
▁संतुलन	-9717
कोप	-9718
▁Mo	-9719
orrow	-9720
▁टक	-9721
▁हथिय	-9722
▁भूरे	-9723
kin	-9724
दिन	-9725
▁अद्भुत	-9726
मेन	-9727
using	-9728
▁wors	-9729
▁foundation	-9730
▁अकेले	-9731
▁ब्लॉग	-9732
irus	-9733
▁प्रवास	-9734
▁नेता	-9735
▁प्रथाओं	-9736
▁मालिक	-9737
▁नस्ल	-9738
▁supports	-9739
मीर	-9740
ॉइड	-9741
▁भाषण	-9742
eck	-9743
क्रिय	-9744
▁af	-9745
▁ओह	-9746
▁outl	-9747
▁हासिल	-9748
▁मधुमक्ख	-9749
▁possibility	-9750
▁गाँ	-9751
िकारक	-9752
▁sell	-9753
rid	-9754
▁निशान	-9755
▁व्ह	-9756
▁discipl	-9757
rieved	-9758
▁density	-9759
▁देव	-9760
▁parties	-9761
▁din	-9762
▁हाई	-9763
▁मैन	-9764
▁Try	-9765
▁hero	-9766
▁brand	-9767
▁Australian	-9768
▁प्रतिस्थाप	-9769
▁listen	-9770
▁1999	-9771
▁Sign	-9772
▁Ap	-9773
▁विफलता	-9774
जु	-9775
▁district	-9776
▁लची	-9777
▁bear	-9778
ोबाइल	-9779
▁प्रतिष्ठ	-9780
ोना	-9781
▁toler	-9782
▁purchase	-9783
▁houses	-9784
ups	-9785
▁ancest	-9786
▁formal	-9787
▁Unf	-9788
▁Set	-9789
▁abund	-9790
▁Jud	-9791
rus	-9792
▁1)	-9793
▁बुद्धि	-9794
▁mac	-9795
▁अदाल	-9796
▁बैठक	-9797
▁End	-9798
▁Ox	-9799
▁fever	-9800
▁diagnosed	-9801
▁AS	-9802
oviet	-9803
▁मौखिक	-9804
▁circuit	-9805
oster	-9806
▁absolute	-9807
▁aircraft	-9808
▁सोचा	-9809
▁police	-9810
▁परिक	-9811
ासंगिक	-9812
▁नाइट्र	-9813
भौ	-9814
ोगु	-9815
▁thor	-9816
▁पहुंचने	-9817
▁हाइ	-9818
▁raw	-9819
’,	-9820
▁कुंजी	-9821
▁contamin	-9822
▁सैक	-9823
44	-9824
निहित	-9825
inet	-9826
pet	-9827
▁medic	-9828
▁शब्दकोश	-9829
▁फेंक	-9830
▁चूंकि	-9831
▁Comput	-9832
▁tro	-9833
alse	-9834
कांक	-9835
ritis	-9836
▁भरा	-9837
rag	-9838
▁अग्न	-9839
▁अनुरोध	-9840
exp	-9841
▁बिक	-9842
▁टन	-9843
▁Stat	-9844
▁conscious	-9845
▁कैथोलिक	-9846
वण	-9847
▁Back	-9848
▁मिस्र	-9849
▁arms	-9850
▁obtained	-9851
sis	-9852
last	-9853
▁assistance	-9854
▁Nations	-9855
▁गरीबी	-9856
▁unless	-9857
▁carb	-9858
▁compounds	-9859
▁younger	-9860
▁unus	-9861
▁understood	-9862
▁1930	-9863
▁दक्षता	-9864
▁संशोधन	-9865
▁मूत्र	-9866
▁खेत	-9867
▁मेजब	-9868
▁हिंसा	-9869
ागत	-9870
rite	-9871
indu	-9872
wing	-9873
▁टुकड़ों	-9874
▁restrict	-9875
▁2)	-9876
osph	-9877
▁Gard	-9878
▁5,	-9879
▁selection	-9880
kes	-9881
▁lands	-9882
▁आउट	-9883
▁मापने	-9884
▁प्रत्यार	-9885
▁घाव	-9886
icians	-9887
▁प्यार	-9888
▁कोलंब	-9889
▁bio	-9890
▁opened	-9891
▁न्यूनतम	-9892
▁फोटो	-9893
.|	-9894
body	-9895
▁आवाज़	-9896
▁चरणों	-9897
▁corpor	-9898
▁विभाजन	-9899
▁opposite	-9900
▁struggle	-9901
▁कैरोलिना	-9902
▁दुर्घटना	-9903
▁university	-9904
anged	-9905
सिस	-9906
▁Language	-9907
with	-9908
▁propos	-9909
ीदा	-9910
▁butter	-9911
▁difficulty	-9912
▁;	-9913
▁remaining	-9914
96	-9915
itter	-9916
▁ath	-9917
▁आघात	-9918
▁Company	-9919
ब्ब	-9920
▁Quest	-9921
▁छुट	-9922
uke	-9923
▁Open	-9924
▁आदमी	-9925
▁relax	-9926
▁विकल्पों	-9927
ॉन्	-9928
यक	-9929
▁wish	-9930
▁rid	-9931
▁acts	-9932
▁veter	-9933
▁लाखों	-9934
UR	-9935
विश	-9936
▁Oh	-9937
सेंस	-9938
▁प्रवृत्ति	-9939
uts	-9940
▁ultimately	-9941
▁संवाद	-9942
राइड	-9943
▁दान	-9944
▁दौड़	-9945
racy	-9946
िर्देश	-9947
▁प्रारूप	-9948
▁depos	-9949
▁प्रस्तु	-9950
▁Current	-9951
▁पिघ	-9952
▁कणों	-9953
▁व्यवस्था	-9954
▁neighbor	-9955
▁stimul	-9956
काने	-9957
▁कैलोरी	-9958
▁परे	-9959
▁छि	-9960
icide	-9961
▁roof	-9962
▁agency	-9963
▁गुर्दे	-9964
▁Frank	-9965
▁artificial	-9966
cript	-9967
▁हानिकारक	-9968
itutional	-9969
▁unknown	-9970
रद	-9971
▁turns	-9972
ानिर्देश	-9973
▁वही	-9974
▁greatly	-9975
▁नमक	-9976
organ	-9977
phone	-9978
▁door	-9979
▁साक्ष्य	-9980
बॉल	-9981
▁Py	-9982
▁cm	-9983
▁Ann	-9984
▁Mad	-9985
▁Budd	-9986
▁Down	-9987
▁neck	-9988
▁fu	-9989
▁Among	-9990
▁stated	-9991
▁गायब	-9992
▁Works	-9993
▁chief	-9994
▁एंटीबायोटिक	-9995
▁repeated	-9996
▁photograph	-9997
▁cos	-9998
▁पसंदीदा	-9999
▁लैंड	-10000
fish	-10001
▁stands	-10002
▁जला	-10003
▁Alex	-10004
burg	-10005
▁consistent	-10006
HO	-10007
▁instructions	-10008
▁सैकड़ों	-10009
hand	-10010
▁धूल	-10011
▁थॉमस	-10012
abulary	-10013
▁regulations	-10014
▁तालिका	-10015
85	-10016
▁sight	-10017
▁गुणों	-10018
▁managed	-10019
▁electron	-10020
▁join	-10021
▁मोड़	-10022
▁supporting	-10023
▁unp	-10024
▁behaviors	-10025
▁exercises	-10026
77	-10027
▁permanent	-10028
▁Sciences	-10029
▁दोगु	-10030
द्वीप	-10031
▁Div	-10032
▁चार्ल्स	-10033
icit	-10034
▁concrete	-10035
hop	-10036
▁पुस्तकों	-10037
▁Dan	-10038
▁hydrogen	-10039
माग	-10040
▁virtual	-10041
▁error	-10042
▁supplies	-10043
▁उनसे	-10044
icking	-10045
▁विश्वकोश	-10046
्रम	-10047
ोसिए	-10048
▁यूनानी	-10049
ato	-10050
▁shop	-10051
▁multi	-10052
पेक्ष	-10053
ुप	-10054
ena	-10055
▁Big	-10056
▁hur	-10057
▁inner	-10058
वर्त	-10059
riers	-10060
▁regional	-10061
शियम	-10062
▁Paris	-10063
ivery	-10064
▁डिस्क	-10065
ेदन	-10066
▁Tor	-10067
ज्ञानी	-10068
▁दिशानिर्देश	-10069
▁Cult	-10070
▁Native	-10071
▁correspond	-10072
▁शो	-10073
.’	-10074
▁gluc	-10075
्यालयों	-10076
उप	-10077
▁composition	-10078
LE	-10079
aph	-10080
ालाम	-10081
▁kidney	-10082
▁spiritual	-10083
▁आशा	-10084
arant	-10085
▁नो	-10086
▁conventional	-10087
िच	-10088
▁नौकरी	-10089
▁framework	-10090
▁trib	-10091
▁Unfortunately	-10092
▁adopted	-10093
▁writer	-10094
▁Soviet	-10095
ेंडर	-10096
▁तोड़	-10097
▁Wood	-10098
▁chick	-10099
▁Family	-10100
▁extended	-10101
▁pron	-10102
▁अंतः	-10103
▁शादी	-10104
▁insurance	-10105
▁flag	-10106
▁obtain	-10107
▁outbre	-10108
▁architecture	-10109
nam	-10110
▁server	-10111
▁Administ	-10112
cture	-10113
▁वितरित	-10114
▁stroke	-10115
▁tank	-10116
ansion	-10117
पोषण	-10118
There	-10119
▁कटौती	-10120
▁विश्वसनीय	-10121
▁connections	-10122
▁overl	-10123
▁transmission	-10124
थेन	-10125
▁चुनाव	-10126
▁putting	-10127
▁suc	-10128
▁34	-10129
▁IP	-10130
▁ax	-10131
र्या	-10132
▁bot	-10133
dule	-10134
▁1998	-10135
▁Clin	-10136
▁निकलने	-10137
bert	-10138
▁pool	-10139
▁जीवों	-10140
▁nearby	-10141
▁comments	-10142
ml	-10143
▁presentation	-10144
umes	-10145
ait	-10146
दूस	-10147
▁(1)	-10148
▁रोम	-10149
▁चलाने	-10150
▁indicates	-10151
▁लाइन	-10152
▁पहाड़ी	-10153
▁challenging	-10154
▁opinion	-10155
▁Southern	-10156
▁sheet	-10157
▁एसोसिए	-10158
ालामुख	-10159
▁spaces	-10160
▁Vit	-10161
▁ahead	-10162
▁painting	-10163
yles	-10164
▁accident	-10165
जिस	-10166
▁fell	-10167
▁babies	-10168
▁mixed	-10169
▁बारिश	-10170
▁renewable	-10171
▁यान	-10172
▁unable	-10173
▁जरूर	-10174
जीकरण	-10175
▁रोबोट	-10176
▁जापानी	-10177
▁Adv	-10178
ंदी	-10179
▁अनुप्रयोगों	-10180
▁मोन	-10181
▁cards	-10182
▁प्रक्षेप	-10183
▁obst	-10184
▁rising	-10185
ini	-10186
यदि	-10187
▁चुंबकीय	-10188
▁श्रमिकों	-10189
▁समझा	-10190
▁persist	-10191
▁रूपों	-10192
▁minerals	-10193
▁Catholic	-10194
ज्ञात	-10195
ृष्टि	-10196
▁डाला	-10197
दाताओं	-10198
▁shift	-10199
ellect	-10200
▁Ast	-10201
▁ग्रीनहाउस	-10202
▁प्रतिभागियों	-10203
▁standing	-10204
चानक	-10205
uation	-10206
क्षणिक	-10207
▁cultures	-10208
then	-10209
ears	-10210
aped	-10211
amins	-10212
▁nine	-10213
anda	-10214
▁obesity	-10215
लिंग	-10216
▁Chic	-10217
▁मास	-10218
▁अंतर्निहित	-10219
▁photo	-10220
▁implementation	-10221
▁calories	-10222
▁magnetic	-10223
▁Additionally	-10224
▁dut	-10225
▁Pers	-10226
▁feeding	-10227
▁everyday	-10228
▁मंडल	-10229
▁wasn	-10230
▁कोले	-10231
▁फैसला	-10232
86	-10233
▁zero	-10234
▁कब्र	-10235
▁लौट	-10236
erent	-10237
▁स्मिथ	-10238
ribed	-10239
▁Less	-10240
वादा	-10241
▁प्रच	-10242
icious	-10243
▁हस्ताक्षर	-10244
ala	-10245
quit	-10246
▁Agricult	-10247
▁feedback	-10248
irds	-10249
▁USA	-10250
▁मुक	-10251
▁accepted	-10252
LA	-10253
▁mos	-10254
▁ट्रांस	-10255
▁नाटकीय	-10256
ints	-10257
▁मुद्र	-10258
▁Report	-10259
ua	-10260
जात	-10261
▁tex	-10262
▁न्यूर	-10263
▁जागरूकता	-10264
▁laboratory	-10265
▁बनाम	-10266
icon	-10267
िफ	-10268
luding	-10269
▁2018	-10270
elesc	-10271
▁यकृत	-10272
लांग	-10273
▁transportation	-10274
▁trained	-10275
▁बचपन	-10276
mm	-10277
▁Plant	-10278
▁55	-10279
ocking	-10280
▁substances	-10281
lo	-10282
ीट	-10283
top	-10284
▁तय	-10285
▁अंतराल	-10286
▁किलोमीटर	-10287
▁confidence	-10288
ada	-10289
ुत्	-10290
earing	-10291
▁मंदिर	-10292
▁spending	-10293
▁ourselves	-10294
▁Equ	-10295
ापन	-10296
▁नौकर	-10297
▁शून्य	-10298
▁शांत	-10299
सले	-10300
▁बचत	-10301
▁ग्रेड	-10302
hist	-10303
▁कने	-10304
▁कीटनाश	-10305
▁mechanism	-10306
▁प्रत्यक्ष	-10307
दर	-10308
▁scholars	-10309
▁भेजा	-10310
▁debate	-10311
▁necessarily	-10312
▁participate	-10313
add	-10314
खर	-10315
▁Northern	-10316
▁customers	-10317
What	-10318
▁समानता	-10319
▁attached	-10320
▁Type	-10321
हाल	-10322
▁लुप्त	-10323
EP	-10324
दिष्ट	-10325
▁आवृत्ति	-10326
▁Scientists	-10327
▁बर	-10328
ियाना	-10329
▁Peter	-10330
▁संगठनों	-10331
▁33	-10332
▁Mill	-10333
▁ज्वालामुख	-10334
▁कहें	-10335
▁स्पेनिश	-10336
▁immediate	-10337
▁underlying	-10338
▁पैरों	-10339
▁smooth	-10340
rem	-10341
▁swim	-10342
level	-10343
▁nose	-10344
▁breath	-10345
ifications	-10346
▁दूरबीन	-10347
▁capture	-10348
▁आवरण	-10349
▁layers	-10350
▁generations	-10351
▁Str	-10352
▁amb	-10353
▁partner	-10354
▁replaced	-10355
▁बैटरी	-10356
▁plenty	-10357
▁persons	-10358
▁pair	-10359
▁पट्ट	-10360
क्ताओं	-10361
▁समिति	-10362
▁examine	-10363
ocratic	-10364
ाग्य	-10365
▁अचानक	-10366
▁scan	-10367
▁गाँव	-10368
▁हानि	-10369
▁विनियम	-10370
लीन	-10371
gent	-10372
▁reactions	-10373
orous	-10374
stone	-10375
▁newsp	-10376
▁बगीचे	-10377
▁administration	-10378
▁interaction	-10379
▁रेत	-10380
▁diag	-10381
orses	-10382
▁possess	-10383
▁लक्षित	-10384
▁दौरा	-10385
▁उष्णकटिबंधीय	-10386
रेख	-10387
▁imper	-10388
▁एर	-10389
▁लक्ष्यों	-10390
▁अका	-10391
▁insulin	-10392
abled	-10393
▁limits	-10394
ediatric	-10395
▁धूप	-10396
▁संरचनाओं	-10397
▁description	-10398
anta	-10399
weight	-10400
▁burning	-10401
▁marriage	-10402
▁organized	-10403
▁intervention	-10404
▁1920	-10405
▁ends	-10406
▁Academy	-10407
zed	-10408
Americ	-10409
उत्	-10410
▁लाइसेंस	-10411
▁Brown	-10412
ora	-10413
▁shut	-10414
चालित	-10415
▁mining	-10416
िकन	-10417
▁meal	-10418
विज्ञानी	-10419
▁launched	-10420
BS	-10421
▁स्थिरता	-10422
▁किंग	-10423
▁stable	-10424
umps	-10425
▁variable	-10426
▁कोलो	-10427
▁स्मारक	-10428
ctive	-10429
▁gone	-10430
▁Main	-10431
▁शैक्षणिक	-10432
how	-10433
▁भागीदारी	-10434
▁काटने	-10435
▁Carolina	-10436
▁equivalent	-10437
धर	-10438
रेटर	-10439
alian	-10440
▁तटीय	-10441
▁accessible	-10442
▁लेता	-10443
पण	-10444
osion	-10445
▁ताक	-10446
▁accum	-10447
▁entry	-10448
▁knows	-10449
▁Age	-10450
▁string	-10451
▁consumer	-10452
▁Wik	-10453
▁अनुदान	-10454
▁tissues	-10455
▁row	-10456
▁gap	-10457
▁ment	-10458
▁ratio	-10459
▁Conn	-10460
▁yield	-10461
▁लाभों	-10462
As	-10463
▁जोड़ें	-10464
▁महामारी	-10465
▁instruments	-10466
ुद्ध	-10467
▁Valley	-10468
▁covers	-10469
▁प्रसंस्	-10470
▁प्रासंगिक	-10471
▁Bus	-10472
▁derived	-10473
plant	-10474
▁maps	-10475
र्भाग्य	-10476
▁fixed	-10477
▁रंगीन	-10478
▁forget	-10479
▁चित्रों	-10480
▁marked	-10481
▁recognition	-10482
nee	-10483
▁निरी	-10484
itudes	-10485
thritis	-10486
मिया	-10487
asters	-10488
▁sequence	-10489
▁installed	-10490
itely	-10491
▁Meth	-10492
▁crow	-10493
▁clust	-10494
▁पिछली	-10495
▁border	-10496
▁regist	-10497
▁voltage	-10498
बै	-10499
▁Street	-10500
▁नक्	-10501
▁reserv	-10502
▁maintaining	-10503
▁reduces	-10504
▁improvement	-10505
▁3:	-10506
▁repair	-10507
▁organisms	-10508
▁स्त	-10509
▁galax	-10510
▁Resources	-10511
▁mur	-10512
▁inhab	-10513
▁परिसर	-10514
▁तत्काल	-10515
▁सांद्र	-10516
isp	-10517
▁वाई	-10518
क्रमण	-10519
▁nest	-10520
▁prompt	-10521
▁damaged	-10522
▁bread	-10523
▁(2)	-10524
▁120	-10525
▁गरीब	-10526
▁remark	-10527
▁agreement	-10528
▁lies	-10529
▁demonstrate	-10530
कीर्ण	-10531
▁zone	-10532
▁पाइप	-10533
▁department	-10534
▁failed	-10535
ोग्राफ	-10536
▁Camp	-10537
▁Access	-10538
▁frequent	-10539
रज	-10540
▁पवन	-10541
▁पोषित	-10542
प्राय	-10543
▁Next	-10544
▁Sing	-10545
▁Author	-10546
▁circumstances	-10547
▁खाली	-10548
▁फ्री	-10549
▁दवाएं	-10550
▁percentage	-10551
▁grew	-10552
▁बिस्	-10553
▁Which	-10554
▁Hall	-10555
▁fold	-10556
▁पढ़ना	-10557
▁AP	-10558
▁asthma	-10559
जरी	-10560
ोज़	-10561
▁epid	-10562
▁रंगों	-10563
बामा	-10564
ड्स	-10565
परि	-10566
ाइम	-10567
िसन	-10568
▁नाक	-10569
▁यी	-10570
▁Scot	-10571
▁incred	-10572
▁acknow	-10573
pes	-10574
श्ले	-10575
▁cup	-10576
▁Math	-10577
▁क्रे	-10578
▁hole	-10579
▁bridge	-10580
▁housing	-10581
aked	-10582
▁comparison	-10583
▁वेस्ट	-10584
▁Royal	-10585
विशेष	-10586
कृतियों	-10587
fit	-10588
▁eld	-10589
▁moral	-10590
▁distur	-10591
▁witness	-10592
yroid	-10593
▁shapes	-10594
▁industries	-10595
छा	-10596
ymph	-10597
tic	-10598
▁Penn	-10599
▁attend	-10600
▁rivers	-10601
▁evaluation	-10602
▁10,000	-10603
▁observations	-10604
▁वरि	-10605
▁वरिष्ठ	-10606
▁हाउस	-10607
▁perce	-10608
▁settings	-10609
फोन	-10610
▁आयोग	-10611
▁प्रकट	-10612
▁अन्यथा	-10613
▁ru	-10614
inction	-10615
▁chosen	-10616
▁organs	-10617
roduction	-10618
साव	-10619
▁fighting	-10620
oding	-10621
zil	-10622
▁Jo	-10623
heast	-10624
▁फ्रे	-10625
▁Key	-10626
▁authorities	-10627
थि	-10628
▁poison	-10629
▁Scott	-10630
▁किताब	-10631
▁ongoing	-10632
▁Mag	-10633
etime	-10634
izon	-10635
▁उपभोक्ता	-10636
ventions	-10637
▁ethnic	-10638
▁किशोरों	-10639
▁moisture	-10640
▁पुराना	-10641
▁physics	-10642
You	-10643
▁जिनकी	-10644
▁बिल्ली	-10645
▁Joseph	-10646
▁Non	-10647
▁लुई	-10648
▁पारित	-10649
▁सर्वर	-10650
oted	-10651
▁responses	-10652
9)	-10653
▁Guide	-10654
▁स्वर	-10655
▁मेडिसिन	-10656
▁volcan	-10657
▁अज्ञात	-10658
▁viruses	-10659
sey	-10660
▁कोण	-10661
गोलिक	-10662
प्रभाव	-10663
▁उपयोगकर्ताओं	-10664
▁loved	-10665
▁प्रशिक्षित	-10666
iox	-10667
▁pounds	-10668
▁Windows	-10669
▁लहर	-10670
हमारे	-10671
▁award	-10672
▁मूल्यवान	-10673
cher	-10674
▁शेष	-10675
▁resolution	-10676
अमेरिक	-10677
▁संज्ञान	-10678
▁psychological	-10679
▁ingredients	-10680
▁हेर	-10681
▁essays	-10682
▁कांच	-10683
▁rice	-10684
▁compare	-10685
दो	-10686
▁biod	-10687
ourage	-10688
reland	-10689
▁meters	-10690
▁Pan	-10691
under	-10692
▁brings	-10693
gers	-10694
▁operate	-10695
▁मेक्सिको	-10696
.),	-10697
▁blocks	-10698
▁earthqu	-10699
▁इनकार	-10700
▁players	-10701
▁Michael	-10702
ighter	-10703
▁सांद्रता	-10704
▁किसानों	-10705
लेस	-10706
▁employment	-10707
▁ध्रुव	-10708
मुझे	-10709
inding	-10710
spec	-10711
▁wait	-10712
▁runs	-10713
▁विंड	-10714
▁pregnant	-10715
rd	-10716
gical	-10717
लाइट	-10718
▁tons	-10719
▁अटलांट	-10720
▁कमरे	-10721
▁exists	-10722
▁अनुकूलित	-10723
▁mood	-10724
▁सड़	-10725
hered	-10726
ading	-10727
▁थै	-10728
सेना	-10729
▁prove	-10730
throp	-10731
▁क्रेड	-10732
▁obl	-10733
▁अगली	-10734
▁eastern	-10735
फ्	-10736
▁inhib	-10737
utrition	-10738
▁bath	-10739
▁tight	-10740
itative	-10741
oned	-10742
▁worry	-10743
▁Ma	-10744
▁ऊँचा	-10745
▁asking	-10746
▁Face	-10747
▁collaboration	-10748
rooms	-10749
▁IV	-10750
▁married	-10751
gu	-10752
▁राय	-10753
▁1997	-10754
▁favorite	-10755
▁surfaces	-10756
▁gram	-10757
anches	-10758
▁गईं	-10759
▁संस्थानों	-10760
▁खड़े	-10761
▁हेनरी	-10762
▁आलोचना	-10763
airy	-10764
▁तैर	-10765
▁complicated	-10766
▁उपन	-10767
▁Word	-10768
▁शाही	-10769
car	-10770
▁प्रतिबद्ध	-10771
▁vs	-10772
▁protocol	-10773
▁Sever	-10774
▁preventing	-10775
66	-10776
isk	-10777
▁mice	-10778
▁functional	-10779
gs	-10780
▁Times	-10781
रेन	-10782
▁reliable	-10783
▁py	-10784
▁आश	-10785
रोधी	-10786
▁Board	-10787
▁अस्वी	-10788
▁Ireland	-10789
्टिन	-10790
▁अनुकरण	-10791
ployment	-10792
▁असम	-10793
▁संभाल	-10794
▁preval	-10795
▁तारों	-10796
▁willing	-10797
▁jump	-10798
▁define	-10799
rimination	-10800
▁समझना	-10801
no	-10802
▁Orig	-10803
▁founded	-10804
▁mechanisms	-10805
▁Kh	-10806
▁नाव	-10807
▁holds	-10808
▁मुद्रा	-10809
▁whatever	-10810
▁Special	-10811
▁subs	-10812
व्यापी	-10813
espread	-10814
▁सीमाओं	-10815
्यात्मक	-10816
▁चरित्र	-10817
▁mechanical	-10818
वत	-10819
itivity	-10820
▁त्वरित	-10821
▁रीढ़	-10822
▁Victor	-10823
▁script	-10824
▁Source	-10825
▁guarant	-10826
roat	-10827
▁Christmas	-10828
▁चैन	-10829
▁यादृ	-10830
▁यादृच्छिक	-10831
▁shot	-10832
▁Effect	-10833
▁परिस्थित	-10834
kins	-10835
▁indeed	-10836
▁seconds	-10837
▁OF	-10838
▁एनी	-10839
▁princip	-10840
▁destroyed	-10841
▁match	-10842
▁Reading	-10843
▁varieties	-10844
▁ships	-10845
▁दुर्भाग्य	-10846
▁पुनर्प्रा	-10847
र्ती	-10848
▁दाव	-10849
▁paralle	-10850
▁turning	-10851
्वेष	-10852
▁tut	-10853
▁prev	-10854
ोंट	-10855
CD	-10856
ella	-10857
▁Cap	-10858
▁relief	-10859
▁objective	-10860
▁चढ़	-10861
▁trip	-10862
▁competition	-10863
▁Commit	-10864
▁thanks	-10865
िये	-10866
▁Hy	-10867
otes	-10868
▁38	-10869
▁ped	-10870
▁irrit	-10871
▁सूचित	-10872
▁videos	-10873
▁अश्वेत	-10874
▁उत्परि	-10875
▁पोल	-10876
▁थोड़ी	-10877
▁बंदरगाह	-10878
▁expressed	-10879
inf	-10880
▁pand	-10881
ोग्रा	-10882
▁facing	-10883
▁1995	-10884
▁दोस्तों	-10885
▁historic	-10886
48	-10887
▁लुप्तप्राय	-10888
▁represented	-10889
एगा	-10890
▁माइकल	-10891
▁सन	-10892
ंत्रित	-10893
▁निकाला	-10894
▁conversation	-10895
health	-10896
▁Young	-10897
▁क्रेडिट	-10898
▁मोटापे	-10899
▁funds	-10900
▁दिमाग	-10901
▁rocks	-10902
▁fashion	-10903
hav	-10904
राय	-10905
ुत्वा	-10906
▁debt	-10907
ुत्वाकर्षण	-10908
जीब	-10909
inity	-10910
▁Retrieved	-10911
ione	-10912
▁Similar	-10913
▁बेच	-10914
▁hormone	-10915
ita	-10916
▁flower	-10917
▁इमे	-10918
▁3-	-10919
ohyd	-10920
▁arrived	-10921
▁पड़ोस	-10922
▁हिम	-10923
▁conclusion	-10924
rency	-10925
▁estimates	-10926
rovers	-10927
▁हत्या	-10928
▁बेटे	-10929
▁250	-10930
▁rig	-10931
▁होल	-10932
▁Three	-10933
▁refuge	-10934
▁गहरी	-10935
ether	-10936
▁tract	-10937
▁टीकाकरण	-10938
su	-10939
▁भावनात्मक	-10940
▁Lar	-10941
55	-10942
97	-10943
ंबा	-10944
▁आगंत	-10945
▁Richard	-10946
▁कोलंबिया	-10947
▁hem	-10948
▁Mult	-10949
▁6,	-10950
▁trials	-10951
ग्रा	-10952
▁aims	-10953
▁blow	-10954
acco	-10955
ults	-10956
ुद्र	-10957
stein	-10958
▁missing	-10959
▁स्पेक्ट	-10960
▁cooking	-10961
▁doubt	-10962
▁reject	-10963
▁electro	-10964
▁contained	-10965
▁recommendations	-10966
एक्स	-10967
▁facility	-10968
such	-10969
▁कब्जा	-10970
▁नमूनों	-10971
▁सारांश	-10972
▁focuses	-10973
▁Furthermore	-10974
▁सजा	-10975
▁अन्वेष	-10976
▁politics	-10977
▁यीशु	-10978
▁Change	-10979
▁tube	-10980
▁Bank	-10981
▁Mean	-10982
▁delay	-10983
▁cav	-10984
▁वार्म	-10985
scale	-10986
▁इन्फ	-10987
▁हाथों	-10988
▁Chicago	-10989
▁Agency	-10990
▁सूचकांक	-10991
▁hus	-10992
▁हार्ड	-10993
▁Without	-10994
▁प्रदाता	-10995
▁तारे	-10996
▁नैनो	-10997
▁cleaning	-10998
▁push	-10999
▁Lib	-11000
▁इंक	-11001
IL	-11002
घु	-11003
▁scene	-11004
▁कहती	-11005
▁constantly	-11006
▁delivery	-11007
stract	-11008
▁रखे	-11009
ोनिया	-11010
▁लड़कियों	-11011
थन	-11012
▁measurement	-11013
▁गीत	-11014
▁सूत्र	-11015
▁भौगोलिक	-11016
▁daughter	-11017
▁desire	-11018
▁independence	-11019
▁हड्ड	-11020
▁Spain	-11021
▁Fort	-11022
▁निष्क्रिय	-11023
▁EU	-11024
▁crime	-11025
▁TV	-11026
▁vac	-11027
▁जानना	-11028
▁जोड़े	-11029
ocracy	-11030
▁साम्रा	-11031
eless	-11032
liam	-11033
▁lights	-11034
बारी	-11035
त्रिम	-11036
ौतियों	-11037
▁Form	-11038
▁निर्दिष्ट	-11039
▁glucose	-11040
▁37	-11041
▁तु	-11042
▁evaluate	-11043
▁fro	-11044
azine	-11045
▁Moon	-11046
▁किस्	-11047
▁cyber	-11048
▁कुत्तों	-11049
▁circle	-11050
▁victims	-11051
▁Moreover	-11052
ंतित	-11053
hent	-11054
opes	-11055
बिन	-11056
▁मतदान	-11057
iform	-11058
▁गयाः	-11059
▁क्रांति	-11060
▁चुनौतियों	-11061
▁फाइबर	-11062
▁happening	-11063
ूण	-11064
▁खेती	-11065
▁Services	-11066
▁learners	-11067
▁रस	-11068
▁शिशु	-11069
ulty	-11070
▁usage	-11071
च्चे	-11072
elled	-11073
▁spok	-11074
▁centre	-11075
▁nervous	-11076
▁offering	-11077
थी	-11078
▁territory	-11079
▁Revolution	-11080
itan	-11081
▁intest	-11082
▁earn	-11083
▁respiratory	-11084
▁thousand	-11085
▁involving	-11086
▁categories	-11087
▁mode	-11088
▁blind	-11089
▁satellite	-11090
▁Gal	-11091
▁route	-11092
▁एजेंस	-11093
▁जिले	-11094
▁interactions	-11095
reed	-11096
▁भरे	-11097
▁Figure	-11098
▁vote	-11099
▁markets	-11100
▁announced	-11101
▁मनोवैज्ञानिक	-11102
▁धम	-11103
but	-11104
▁Rock	-11105
▁Bab	-11106
▁पंप	-11107
▁ग्ले	-11108
▁launch	-11109
irt	-11110
▁गूगल	-11111
▁column	-11112
▁प्रौद्योगिक	-11113
ented	-11114
िकागो	-11115
▁शिशुओं	-11116
een	-11117
teen	-11118
▁gut	-11119
▁Super	-11120
46	-11121
▁realize	-11122
▁intellect	-11123
called	-11124
▁ended	-11125
agraph	-11126
▁recept	-11127
▁चिंतित	-11128
▁आकाशगंगा	-11129
ुकला	-11130
▁छाया	-11131
▁Rome	-11132
▁street	-11133
▁artists	-11134
usal	-11135
▁देशी	-11136
▁pharm	-11137
▁ह्यू	-11138
▁Whether	-11139
▁Ec	-11140
फल	-11141
▁Lit	-11142
ांतिक	-11143
▁Chapter	-11144
▁archae	-11145
▁mathematics	-11146
▁Sil	-11147
▁mand	-11148
DP	-11149
▁critic	-11150
▁लिम	-11151
▁भीड़	-11152
▁हमले	-11153
▁chrom	-11154
▁frame	-11155
▁comfortable	-11156
utch	-11157
लेशन	-11158
▁Low	-11159
▁1996	-11160
▁widespread	-11161
िग	-11162
▁असमान	-11163
▁fer	-11164
▁जड़ी	-11165
▁बादल	-11166
▁राशि	-11167
▁1940	-11168
▁provider	-11169
lu	-11170
ेंसिल	-11171
▁fung	-11172
▁चार्ट	-11173
▁coastal	-11174
▁trouble	-11175
▁600	-11176
▁बाधित	-11177
▁issued	-11178
▁निरीक्षण	-11179
▁occasion	-11180
riend	-11181
▁उग	-11182
▁designs	-11183
▁switch	-11184
pir	-11185
igan	-11186
raining	-11187
▁danger	-11188
▁intense	-11189
▁अकाद	-11190
▁पीले	-11191
▁theme	-11192
irty	-11193
▁कैल्	-11194
▁treating	-11195
▁Pop	-11196
▁shif	-11197
▁गिनती	-11198
▁माइक्रो	-11199
▁Sat	-11200
▁Treatment	-11201
▁measurements	-11202
▁cryst	-11203
▁Safety	-11204
▁निर्माताओं	-11205
▁rely	-11206
▁रसाय	-11207
▁philosophy	-11208
hyd	-11209
ोसा	-11210
▁Eth	-11211
ेनिया	-11212
▁tub	-11213
▁bigger	-11214
31	-11215
ोग्राफी	-11216
onal	-11217
isters	-11218
▁visitors	-11219
▁hun	-11220
ाइमर	-11221
▁Georg	-11222
▁score	-11223
▁हिल	-11224
▁गुरुत्वाकर्षण	-11225
फन	-11226
▁स्वाम	-11227
िसी	-11228
-200	-11229
▁पहुंचा	-11230
ocy	-11231
▁भाल	-11232
▁manip	-11233
▁साक्षा	-11234
▁alle	-11235
▁अर्ध	-11236
▁प्रस्तुति	-11237
▁होम	-11238
▁listening	-11239
▁abnormal	-11240
ुप्त	-11241
▁Ask	-11242
▁integrated	-11243
ola	-11244
▁जीत	-11245
▁स्वामित्व	-11246
वायर	-11247
ुखार	-11248
▁item	-11249
▁vocabulary	-11250
▁joined	-11251
▁स्वचालित	-11252
▁Brazil	-11253
▁खुश	-11254
▁लगाएं	-11255
ovascular	-11256
▁adequate	-11257
▁Est	-11258
▁ran	-11259
▁रिचर्ड	-11260
▁beliefs	-11261
tra	-11262
क्का	-11263
▁स्क्	-11264
liament	-11265
▁statistics	-11266
▁bond	-11267
▁बिक्री	-11268
▁pestic	-11269
▁guidance	-11270
▁Community	-11271
idential	-11272
▁सेंटर	-11273
▁Italy	-11274
▁chest	-11275
▁serving	-11276
making	-11277
▁वास्तुकला	-11278
df	-11279
RC	-11280
ki	-11281
hesis	-11282
ushed	-11283
▁बयान	-11284
कान	-11285
▁preparation	-11286
पुस्त	-11287
▁membr	-11288
ureau	-11289
▁explanation	-11290
▁कृत्रिम	-11291
विधान	-11292
▁Remember	-11293
▁mixt	-11294
▁latter	-11295
▁anywhere	-11296
▁publication	-11297
▁अजीब	-11298
ounter	-11299
▁biology	-11300
▁receiving	-11301
सेन	-11302
He	-11303
▁scientist	-11304
▁विज्ञानी	-11305
▁constructed	-11306
▁खपत	-11307
▁सोम	-11308
▁भ्रूण	-11309
▁Parent	-11310
▁examination	-11311
IP	-11312
ंह	-11313
▁पेंट	-11314
▁false	-11315
▁whereas	-11316
▁शोर	-11317
▁clothing	-11318
▁printing	-11319
▁lake	-11320
▁spin	-11321
बोर्ड	-11322
▁पैनल	-11323
▁Never	-11324
aming	-11325
idity	-11326
▁drawn	-11327
▁छोर	-11328
heric	-11329
▁proven	-11330
▁कलाकार	-11331
▁amazing	-11332
▁साम्राज्य	-11333
कन	-11334
▁रुक	-11335
▁पार्टी	-11336
दारों	-11337
▁जनरल	-11338
▁Indust	-11339
▁senior	-11340
▁farming	-11341
alls	-11342
arn	-11343
ावर	-11344
▁mineral	-11345
▁resulted	-11346
्कुल	-11347
दूसरे	-11348
▁messages	-11349
▁शौ	-11350
धारी	-11351
▁घनत्व	-11352
hyth	-11353
णविक	-11354
कश	-11355
▁लिखित	-11356
▁कैन	-11357
▁administr	-11358
▁Fund	-11359
▁artist	-11360
▁कथा	-11361
charge	-11362
▁schedule	-11363
विल	-11364
▁frag	-11365
▁texts	-11366
▁alter	-11367
▁नियुक्त	-11368
▁roles	-11369
▁विनाशकारी	-11370
राइल	-11371
ioxid	-11372
▁बुखार	-11373
▁सोचने	-11374
▁टॉ	-11375
▁lungs	-11376
▁accuracy	-11377
▁legislation	-11378
▁dys	-11379
▁जोड़ी	-11380
▁नवा	-11381
▁भेड़	-11382
▁अस्पष्ट	-11383
▁रसायनों	-11384
▁वार्मिंग	-11385
▁Engineering	-11386
▁भाग्य	-11387
)-	-11388
तो	-11389
▁1000	-11390
्याण	-11391
▁घंटों	-11392
IA	-11393
▁grows	-11394
▁पेंसिल	-11395
▁vitamins	-11396
▁furn	-11397
ंगनी	-11398
पक्ष	-11399
▁Atlantic	-11400
▁advantages	-11401
▁गोली	-11402
ड्ढ	-11403
erior	-11404
▁arrange	-11405
▁अर्थशास्त्र	-11406
▁hazard	-11407
▁मूल्यों	-11408
47	-11409
▁आह	-11410
▁कठिनाई	-11411
▁Avoid	-11412
▁भावनाओं	-11413
▁ring	-11414
▁align	-11415
▁गतिविधियाँ	-11416
▁उतनी	-11417
▁Help	-11418
ट्टी	-11419
▁banks	-11420
igue	-11421
▁mm	-11422
▁पीटर	-11423
▁चट्टानों	-11424
▁participation	-11425
cycl	-11426
ivered	-11427
▁ब्राउन	-11428
oga	-11429
liest	-11430
▁स्टेम	-11431
▁रास्ता	-11432
▁supposed	-11433
र्करा	-11434
▁excessive	-11435
▁मापा	-11436
▁explo	-11437
▁formula	-11438
▁केंद्रों	-11439
▁rarely	-11440
rowing	-11441
apse	-11442
▁conven	-11443
▁controls	-11444
▁पैसे	-11445
▁शिविर	-11446
▁मेडिकल	-11447
▁moves	-11448
ocation	-11449
▁Empire	-11450
▁trigger	-11451
ady	-11452
forest	-11453
▁holding	-11454
▁होकर	-11455
heimer	-11456
▁heating	-11457
"।	-11458
▁panel	-11459
▁आत्मा	-11460
▁Online	-11461
onia	-11462
▁ढांचे	-11463
▁प्रत्यारोपण	-11464
▁रूस	-11465
▁Kids	-11466
▁breed	-11467
▁4:	-11468
▁Den	-11469
rine	-11470
▁surve	-11471
▁seeking	-11472
▁breeding	-11473
▁expansion	-11474
▁बेहद	-11475
▁removal	-11476
▁sharp	-11477
▁Having	-11478
▁मुँ	-11479
▁roughly	-11480
▁Imm	-11481
▁Play	-11482
▁रिसाव	-11483
▁undert	-11484
▁सलाहकार	-11485
्यूल	-11486
स्राव	-11487
▁sole	-11488
▁अक्षम	-11489
▁category	-11490
्ब	-11491
ेदारी	-11492
▁demonstrated	-11493
्टन	-11494
asty	-11495
▁boys	-11496
▁knowing	-11497
स्पर	-11498
▁शिकागो	-11499
▁stre	-11500
▁भरने	-11501
▁unusual	-11502
▁आधा	-11503
▁उभर	-11504
▁अनुसरण	-11505
▁ठहरा	-11506
बिंब	-11507
▁estimate	-11508
ॉडी	-11509
▁अदालत	-11510
▁संज्ञानात्मक	-11511
▁careful	-11512
▁holes	-11513
▁owner	-11514
▁अक्षर	-11515
▁View	-11516
▁गड्ढ	-11517
▁imagine	-11518
▁Perhaps	-11519
▁hypothes	-11520
▁deeper	-11521
▁कल्याण	-11522
▁sections	-11523
▁presents	-11524
▁antibiotics	-11525
▁मौलिक	-11526
▁interf	-11527
याप	-11528
▁सिग	-11529
▁Copy	-11530
▁centers	-11531
▁स्वयंसे	-11532
▁nitrogen	-11533
▁Yes	-11534
▁पढ़ा	-11535
▁ske	-11536
▁शर्करा	-11537
▁sunlight	-11538
▁ग्लो	-11539
▁संविधान	-11540
▁minute	-11541
▁angle	-11542
▁dollars	-11543
▁healing	-11544
▁matters	-11545
यां	-11546
▁मार्क	-11547
▁recover	-11548
▁peak	-11549
▁edition	-11550
olving	-11551
▁Director	-11552
▁session	-11553
▁disaster	-11554
▁बौद्ध	-11555
▁Eastern	-11556
▁औपचारिक	-11557
while	-11558
▁नरम	-11559
▁orient	-11560
▁Network	-11561
▁Heart	-11562
▁infect	-11563
बाद	-11564
▁Leg	-11565
▁क्रिस	-11566
▁मिलने	-11567
she	-11568
गणना	-11569
▁एजेंट	-11570
▁pit	-11571
otton	-11572
▁स्रोतः	-11573
▁paras	-11574
▁silver	-11575
अर	-11576
▁Constitution	-11577
▁ille	-11578
▁robot	-11579
▁घटकों	-11580
▁plus	-11581
aska	-11582
▁Mer	-11583
▁स्टेट	-11584
▁सितारों	-11585
▁literacy	-11586
विले	-11587
नेल	-11588
▁MD	-11589
▁दांतों	-11590
▁दिखाने	-11591
ounce	-11592
▁रोमांच	-11593
▁considering	-11594
▁MS	-11595
▁यात्री	-11596
▁complications	-11597
▁अवशोषित	-11598
खंड	-11599
rays	-11600
▁Centre	-11601
gov	-11602
▁horses	-11603
▁honor	-11604
ढ़ि	-11605
adder	-11606
▁brows	-11607
▁transf	-11608
▁females	-11609
▁stronger	-11610
▁एसोसिएशन	-11611
▁सुविधाओं	-11612
▁beauty	-11613
inder	-11614
▁innovation	-11615
▁रेट	-11616
▁बिल्कुल	-11617
▁bees	-11618
▁साझेदारी	-11619
].	-11620
ट्स	-11621
▁AC	-11622
▁आक्रमण	-11623
▁approved	-11624
▁committed	-11625
▁हित	-11626
िंग्स	-11627
▁array	-11628
▁genet	-11629
▁warning	-11630
ड्र	-11631
▁Martin	-11632
▁स्तरों	-11633
▁मनोरंजन	-11634
▁महाद्वीप	-11635
▁नक	-11636
▁Several	-11637
नास	-11638
▁turb	-11639
▁consume	-11640
▁Prevention	-11641
ांठ	-11642
▁innovative	-11643
soft	-11644
▁दुख	-11645
▁reven	-11646
rene	-11647
▁gro	-11648
▁बजट	-11649
▁सफाई	-11650
▁जेल	-11651
press	-11652
▁Asian	-11653
▁सोचते	-11654
▁screening	-11655
eren	-11656
▁छत	-11657
▁ग्राम	-11658
▁अस्थायी	-11659
▁टू	-11660
arsh	-11661
ुलिन	-11662
सलों	-11663
ifest	-11664
स्टीन	-11665
▁जनजा	-11666
▁clar	-11667
तकों	-11668
▁मक्ख	-11669
▁planets	-11670
▁नौसेना	-11671
-15	-11672
▁सख	-11673
ucky	-11674
▁adds	-11675
▁भरप	-11676
ishment	-11677
▁लिखते	-11678
▁ऑस्ट्रेलियाई	-11679
▁eliminate	-11680
▁मारे	-11681
▁teams	-11682
ॉन्ड	-11683
▁dose	-11684
▁overw	-11685
▁Administration	-11686
▁county	-11687
▁विकारों	-11688
▁लॉग	-11689
▁सीखना	-11690
▁physician	-11691
essions	-11692
▁fairly	-11693
▁उतर	-11694
दर्शी	-11695
▁Pot	-11696
▁मैक्स	-11697
▁विलुप्त	-11698
यरी	-11699
▁copper	-11700
▁spectrum	-11701
outs	-11702
कम	-11703
itals	-11704
▁खबर	-11705
▁Contin	-11706
▁neur	-11707
▁chlor	-11708
▁stuff	-11709
▁गिल	-11710
▁हफ्	-11711
▁800	-11712
▁printed	-11713
▁variables	-11714
▁Liter	-11715
ctor	-11716
▁kilomet	-11717
▁mosquit	-11718
सतन	-11719
oir	-11720
ड़न	-11721
▁orbit	-11722
▁ऊँ	-11723
▁गेंद	-11724
▁दूषित	-11725
▁outcome	-11726
▁प्राथमिकता	-11727
▁finished	-11728
▁Four	-11729
▁indigenous	-11730
▁जाल	-11731
▁Zeal	-11732
▁controvers	-11733
▁$1	-11734
▁sport	-11735
▁खिलाड़ी	-11736
▁significance	-11737
▁engineers	-11738
igate	-11739
▁खतरों	-11740
▁शब्दावली	-11741
ागार	-11742
▁Thanks	-11743
▁sensors	-11744
▁इंजे	-11745
▁पंखों	-11746
▁effectiveness	-11747
emia	-11748
▁bringing	-11749
▁detection	-11750
▁समझाया	-11751
igare	-11752
▁आणविक	-11753
tles	-11754
रेपी	-11755
▁maybe	-11756
▁advert	-11757
icing	-11758
▁encouraged	-11759
▁त्रुटि	-11760
▁branches	-11761
▁प्रतिबिंब	-11762
▁delivered	-11763
door	-11764
▁processed	-11765
कोल	-11766
▁लघु	-11767
चलित	-11768
▁Men	-11769
्मत	-11770
▁Ver	-11771
▁smell	-11772
▁compound	-11773
ोप्	-11774
reek	-11775
▁Did	-11776
▁Viet	-11777
▁proof	-11778
eli	-11779
स्ला	-11780
▁निपट	-11781
▁Irish	-11782
▁males	-11783
▁roads	-11784
▁fulf	-11785
▁साक्षात्कार	-11786
oven	-11787
▁phenomenon	-11788
▁Alz	-11789
▁laser	-11790
HD	-11791
▁Fire	-11792
▁arts	-11793
ज़ा	-11794
▁interactive	-11795
▁कवर	-11796
▁हॉल	-11797
▁troops	-11798
▁Sund	-11799
ट्रिक	-11800
▁Gr	-11801
ॉन्ट	-11802
▁शिल	-11803
▁उत्पादित	-11804
शे	-11805
▁experiencing	-11806
aud	-11807
▁1900	-11808
Al	-11809
Is	-11810
▁निरा	-11811
%.	-11812
ogether	-11813
काव	-11814
बेरी	-11815
▁बाई	-11816
यापचय	-11817
▁स्तंभ	-11818
▁targets	-11819
▁District	-11820
▁शीत	-11821
▁कक्षाओं	-11822
ये	-11823
▁Light	-11824
▁succeed	-11825
orders	-11826
▁समीकरण	-11827
▁gradually	-11828
▁reform	-11829
▁outer	-11830
▁Bu	-11831
▁neighborhood	-11832
▁combat	-11833
▁असमर्थ	-11834
▁falls	-11835
▁रूढ़ि	-11836
▁engaged	-11837
▁giant	-11838
▁sitting	-11839
▁threats	-11840
▁protecting	-11841
▁स्वागत	-11842
▁भूल	-11843
▁sales	-11844
▁disrupt	-11845
▁राहत	-11846
▁fishing	-11847
▁Committee	-11848
▁Hill	-11849
coming	-11850
▁कीड़े	-11851
▁observe	-11852
?"	-11853
SS	-11854
िगन	-11855
विंग	-11856
▁Incre	-11857
▁मोबाइल	-11858
ार्थना	-11859
▁researcher	-11860
________	-11861
्टा	-11862
▁नामित	-11863
▁वर्गीकृत	-11864
▁confirmed	-11865
नाइट	-11866
abeth	-11867
.:	-11868
▁भालू	-11869
▁flour	-11870
▁पथ	-11871
▁खोजें	-11872
ंसक	-11873
▁inher	-11874
▁theore	-11875
▁द्वार	-11876
▁serves	-11877
▁Italian	-11878
▁positions	-11879
▁essentially	-11880
▁अंडा	-11881
▁अंगों	-11882
▁implemented	-11883
chen	-11884
▁decor	-11885
▁twenty	-11886
▁Zealand	-11887
▁composed	-11888
▁कवक	-11889
▁डेल	-11890
▁शरण	-11891
▁cash	-11892
स्ट्रॉल	-11893
▁रणनीतियों	-11894
▁44	-11895
▁भाषाओं	-11896
▁Desc	-11897
▁remed	-11898
▁छोड़कर	-11899
▁स्मार्ट	-11900
▁reward	-11901
▁carrying	-11902
ipedia	-11903
▁ढेर	-11904
▁पैसा	-11905
▁dealing	-11906
▁प्रतिस्पर्धा	-11907
onn	-11908
▁pra	-11909
▁निबंध	-11910
▁विरोधी	-11911
▁लड़ने	-11912
▁Kingdom	-11913
▁tropical	-11914
जिए	-11915
▁pin	-11916
▁microb	-11917
▁theories	-11918
▁none	-11919
▁decay	-11920
▁प्रसंस्करण	-11921
▁टेल	-11922
▁सेल्स	-11923
rane	-11924
▁दंत	-11925
▁Polic	-11926
▁fatty	-11927
बिल	-11928
ब्स	-11929
ograp	-11930
▁empt	-11931
oples	-11932
UN	-11933
फेर	-11934
▁जेन	-11935
▁Being	-11936
▁pandemic	-11937
▁meals	-11938
▁strongly	-11939
▁7,	-11940
▁passing	-11941
▁उपा	-11942
esides	-11943
ortion	-11944
▁strain	-11945
▁button	-11946
▁चीज	-11947
92	-11948
cons	-11949
▁डालने	-11950
▁passage	-11951
▁election	-11952
▁recycling	-11953
स्थान	-11954
▁exciting	-11955
▁वाष्	-11956
▁escape	-11957
▁commission	-11958
▁transact	-11959
रख	-11960
▁Pet	-11961
aired	-11962
▁boy	-11963
िकाओं	-11964
▁Johnson	-11965
print	-11966
▁बोलने	-11967
▁supplements	-11968
ih	-11969
▁किरण	-11970
▁grid	-11971
▁द्वीपों	-11972
▁Alzheimer	-11973
Ph	-11974
▁nice	-11975
▁powers	-11976
कॉ	-11977
▁ov	-11978
▁plane	-11979
▁सावधानीपूर्वक	-11980
▁एथ	-11981
▁marks	-11982
▁Mel	-11983
▁चयापचय	-11984
ोने	-11985
▁इरा	-11986
▁mold	-11987
▁Method	-11988
▁captured	-11989
▁resil	-11990
▁मानद	-11991
rot	-11992
▁पैके	-11993
bles	-11994
▁Ident	-11995
▁संपादक	-11996
ugh	-11997
▁islands	-11998
क्कर	-11999
▁मिथ	-12000
itting	-12001
▁acute	-12002
▁depart	-12003
▁somewhat	-12004
▁wine	-12005
▁मजेदार	-12006
▁implications	-12007
▁पिघल	-12008
%)	-12009
avery	-12010
▁Blue	-12011
▁drought	-12012
▁Columbia	-12013
▁फाइल	-12014
▁प्रार्थना	-12015
▁desired	-12016
▁windows	-12017
▁correctly	-12018
▁औसतन	-12019
अमेरिकी	-12020
ानुमान	-12021
▁trends	-12022
▁Conservation	-12023
▁athlet	-12024
▁विकलांग	-12025
fts	-12026
▁forg	-12027
▁driver	-12028
ांट	-12029
▁Security	-12030
onym	-12031
वाला	-12032
OL	-12033
▁मस	-12034
▁प्रचुर	-12035
▁distributed	-12036
ey	-12037
▁surge	-12038
▁discrimination	-12039
बंधन	-12040
iana	-12041
▁क्षण	-12042
forcement	-12043
▁दरवा	-12044
▁सेल्सियस	-12045
▁metabol	-12046
▁Jul	-12047
▁Hand	-12048
खाने	-12049
▁बढ़े	-12050
ustain	-12051
▁Princ	-12052
ैर	-12053
ज़राइल	-12054
ilation	-12055
amination	-12056
▁Facebook	-12057
ैम	-12058
▁बिस्तर	-12059
▁enables	-12060
angered	-12061
काय	-12062
▁चाय	-12063
▁rose	-12064
▁दौरे	-12065
▁grain	-12066
▁stores	-12067
समा	-12068
▁Modern	-12069
▁molecular	-12070
▁सप	-12071
▁inspired	-12072
94	-12073
▁measuring	-12074
▁प्रतिक्रियाओं	-12075
eenth	-12076
▁parallel	-12077
abil	-12078
▁भरी	-12079
▁ठंडे	-12080
▁मछलियों	-12081
▁(8	-12082
▁निया	-12083
▁सारी	-12084
▁घोड़े	-12085
▁Angel	-12086
▁coron	-12087
angle	-12088
▁fats	-12089
▁100,000	-12090
▁gases	-12091
▁ऑटिज्म	-12092
▁Tom	-12093
▁जनगणना	-12094
▁कोलेस्ट्रॉल	-12095
oston	-12096
▁प्रतिनिधि	-12097
▁influenced	-12098
▁उपहार	-12099
▁ग्रहों	-12100
▁Vitamin	-12101
▁division	-12102
▁relation	-12103
▁कहानियों	-12104
riz	-12105
▁AM	-12106
vard	-12107
▁उठाने	-12108
टिंग	-12109
▁ब्राउ	-12110
▁batteries	-12111
oln	-12112
▁एह	-12113
▁फलों	-12114
▁strict	-12115
▁compris	-12116
▁entered	-12117
▁माध्यमिक	-12118
▁Ins	-12119
▁जरूरतों	-12120
thon	-12121
क्यांश	-12122
▁शनि	-12123
▁पूर्वानुमान	-12124
ब्रे	-12125
▁Head	-12126
▁Lead	-12127
▁association	-12128
लाइड	-12129
▁अंधे	-12130
▁नीले	-12131
▁इंस्ट	-12132
▁domain	-12133
▁जिम्मेदारी	-12134
▁रेग	-12135
▁दुकान	-12136
XX	-12137
ोल्ड	-12138
▁chances	-12139
▁planting	-12140
▁Business	-12141
▁फसलों	-12142
▁panels	-12143
▁poem	-12144
▁पुलिस	-12145
rav	-12146
▁programme	-12147
▁sentences	-12148
.5	-12149
▁cure	-12150
▁खेतों	-12151
IM	-12152
र्गी	-12153
▁Hospital	-12154
▁chemistry	-12155
ुलर	-12156
युद्ध	-12157
▁रूसी	-12158
▁cancers	-12159
▁evolved	-12160
writ	-12161
▁गहन	-12162
▁defe	-12163
▁उपनिवेश	-12164
rox	-12165
▁हाइड्रोजन	-12166
▁PM	-12167
▁Naz	-12168
▁सदी	-12169
▁aband	-12170
▁modified	-12171
▁Ohio	-12172
▁errors	-12173
ogs	-12174
▁editor	-12175
▁अटलांटिक	-12176
▁Bill	-12177
▁अपरि	-12178
itual	-12179
▁Writing	-12180
▁destruction	-12181
▁दाय	-12182
▁dates	-12183
▁इमारतों	-12184
रखाव	-12185
▁कहने	-12186
▁slavery	-12187
▁42	-12188
▁racial	-12189
ैक्ट	-12190
▁Assess	-12191
▁gained	-12192
▁Digital	-12193
▁uncertain	-12194
OC	-12195
icy	-12196
▁mortality	-12197
osh	-12198
▁Jeff	-12199
▁dependent	-12200
▁lie	-12201
▁पीठ	-12202
▁subt	-12203
▁abilities	-12204
▁agreed	-12205
▁इट	-12206
▁लाया	-12207
▁Coast	-12208
▁Init	-12209
▁negot	-12210
▁corner	-12211
omer	-12212
▁10,	-12213
▁विद्रो	-12214
▁insert	-12215
कार्	-12216
BN	-12217
▁sail	-12218
▁antioxid	-12219
भवती	-12220
▁नेत्र	-12221
▁covering	-12222
▁dispos	-12223
▁वाक्यांश	-12224
.;	-12225
▁planned	-12226
▁Obs	-12227
▁statements	-12228
▁disabilities	-12229
डाई	-12230
▁रखरखाव	-12231
▁contemporary	-12232
▁flows	-12233
▁guard	-12234
वादियों	-12235
▁caught	-12236
▁harder	-12237
▁updated	-12238
▁declared	-12239
▁उभ	-12240
▁Impro	-12241
▁polar	-12242
▁वोल्ट	-12243
▁criteria	-12244
▁identifying	-12245
▁देर	-12246
▁strengthen	-12247
▁Pak	-12248
▁UV	-12249
EE	-12250
▁ensuring	-12251
UT	-12252
कीन	-12253
िपि	-12254
जिसे	-12255
▁धीमी	-12256
▁newly	-12257
बूट	-12258
▁relie	-12259
ीयर	-12260
्लू	-12261
▁worst	-12262
▁websites	-12263
▁exploration	-12264
▁सड़कों	-12265
संगत	-12266
▁साह	-12267
bridge	-12268
▁autism	-12269
▁vaccines	-12270
▁पैदल	-12271
वाही	-12272
▁informed	-12273
AA	-12274
inson	-12275
▁Eliz	-12276
▁honey	-12277
▁fourth	-12278
yal	-12279
▁प्रचार	-12280
▁paragraph	-12281
▁mir	-12282
▁Hawai	-12283
▁carbohyd	-12284
▁diameter	-12285
▁coc	-12286
▁करियर	-12287
▁शेर	-12288
▁पहलुओं	-12289
▁गेम	-12290
▁हेल	-12291
▁educators	-12292
▁दिला	-12293
▁employed	-12294
amine	-12295
ोटी	-12296
ियरों	-12297
▁biom	-12298
▁बदले	-12299
▁phosph	-12300
▁लिन	-12301
▁keeps	-12302
▁Amaz	-12303
▁thermal	-12304
▁पुनर्निर्माण	-12305
isdom	-12306
▁acres	-12307
▁काला	-12308
▁stead	-12309
uh	-12310
▁ताकत	-12311
▁पत्नी	-12312
mia	-12313
▁sacr	-12314
▁victim	-12315
आउट	-12316
ाइटिस	-12317
▁fuels	-12318
▁dietary	-12319
▁टिप्पणियों	-12320
ाले	-12321
▁सांप	-12322
▁प्रेरण	-12323
IR	-12324
▁Corn	-12325
▁पादप	-12326
▁Solar	-12327
▁authent	-12328
▁Protection	-12329
तृ	-12330
▁bag	-12331
राडो	-12332
herent	-12333
जाव	-12334
rous	-12335
▁AND	-12336
allow	-12337
▁Ur	-12338
sell	-12339
▁Based	-12340
▁Arctic	-12341
▁Unlike	-12342
▁overcome	-12343
▁horizon	-12344
▁सापेक्ष	-12345
▁पन	-12346
▁दबा	-12347
▁Ut	-12348
ूहिक	-12349
▁Dou	-12350
फेस	-12351
भासी	-12352
▁Imp	-12353
▁usual	-12354
▁पॉली	-12355
▁Po	-12356
▁automatically	-12357
▁characterized	-12358
list	-12359
▁हरा	-12360
▁Michigan	-12361
▁attempts	-12362
▁hardware	-12363
▁पत्रों	-12364
bar	-12365
that	-12366
ोस्ट	-12367
▁Organization	-12368
▁Scotland	-12369
▁उदाहरणों	-12370
ket	-12371
▁हार्व	-12372
haust	-12373
▁नीतियों	-12374
▁hosp	-12375
▁साइकिल	-12376
operation	-12377
र्मी	-12378
▁sus	-12379
▁Symptoms	-12380
िष्	-12381
greg	-12382
▁Dar	-12383
▁functioning	-12384
▁191	-12385
▁fed	-12386
ommod	-12387
▁Cast	-12388
▁जीनोम	-12389
▁आइस	-12390
▁2019	-12391
▁plot	-12392
▁अधीन	-12393
▁engaging	-12394
mes	-12395
ano	-12396
▁crew	-12397
▁lens	-12398
iability	-12399
▁analyze	-12400
िप्ट	-12401
ंछ	-12402
amps	-12403
▁compost	-12404
कुछ	-12405
▁Due	-12406
▁oldest	-12407
▁Prop	-12408
unicip	-12409
▁phrase	-12410
▁mixture	-12411
▁tap	-12412
amics	-12413
▁पूंछ	-12414
▁indicated	-12415
ecess	-12416
▁मामला	-12417
▁mathematical	-12418
gien	-12419
chain	-12420
▁एंड्र	-12421
▁स्प्र	-12422
icals	-12423
▁faced	-12424
▁finds	-12425
ंटे	-12426
ercury	-12427
.1	-12428
itt	-12429
▁विल्	-12430
▁Ven	-12431
▁config	-12432
▁सटीकता	-12433
▁आर्कटिक	-12434
चक्र	-12435
▁forth	-12436
▁heavily	-12437
▁इज़राइल	-12438
▁गणराज्य	-12439
rey	-12440
▁बाग	-12441
incoln	-12442
▁नवाचार	-12443
▁कैल्शियम	-12444
ोनिक	-12445
▁लगाए	-12446
▁1800	-12447
▁एक्	-12448
mers	-12449
▁commitment	-12450
ैड	-12451
▁wound	-12452
▁player	-12453
ricts	-12454
▁इमेजिंग	-12455
▁initially	-12456
ptions	-12457
▁spray	-12458
▁गर्भवती	-12459
▁वृत्त	-12460
▁weapons	-12461
▁affecting	-12462
sm	-12463
comm	-12464
हाइड	-12465
▁ease	-12466
produ	-12467
▁microsc	-12468
▁consumed	-12469
▁बुरा	-12470
▁fest	-12471
▁ओहियो	-12472
IDS	-12473
▁Swed	-12474
cyclop	-12475
▁addiction	-12476
▁Coll	-12477
▁राजधानी	-12478
▁protective	-12479
68	-12480
▁detected	-12481
ूंढ	-12482
रोक्त	-12483
▁उपरोक्त	-12484
eut	-12485
▁जानता	-12486
▁reveal	-12487
▁prominent	-12488
▁Sand	-12489
▁मिलेगी	-12490
ोव	-12491
▁प्रतियोग	-12492
जोन	-12493
▁Wall	-12494
▁desert	-12495
▁ढूंढ	-12496
▁नागरिकों	-12497
ग्राम	-12498
ema	-12499
HS	-12500
▁Star	-12501
▁आंखों	-12502
bec	-12503
parent	-12504
▁असंभव	-12505
▁प्रस्तावित	-12506
▁जितनी	-12507
▁नेताओं	-12508
▁difficulties	-12509
onom	-12510
▁व्हाइट	-12511
▁मार्टिन	-12512
including	-12513
▁फ्रैंक	-12514
▁कार्यकारी	-12515
ोंग	-12516
▁TO	-12517
▁हवाला	-12518
▁घोंसले	-12519
▁dynamic	-12520
▁निकाय	-12521
▁pla	-12522
fulness	-12523
▁tob	-12524
vania	-12525
▁परिपक्व	-12526
▁suffered	-12527
asant	-12528
plete	-12529
▁दुष्	-12530
▁Boston	-12531
▁reaching	-12532
▁मॉ	-12533
esis	-12534
▁मिलाकर	-12535
▁deficiency	-12536
uits	-12537
▁मिलकर	-12538
▁disability	-12539
▁manufacturers	-12540
▁container	-12541
▁nob	-12542
चिक	-12543
▁Cir	-12544
ometry	-12545
▁narrative	-12546
▁Oper	-12547
▁जॉर्जिया	-12548
▁crim	-12549
reated	-12550
▁कोरिया	-12551
▁wonderful	-12552
▁aged	-12553
effect	-12554
▁tumor	-12555
▁टिक	-12556
▁pupils	-12557
▁urine	-12558
▁hormones	-12559
▁introduce	-12560
ani	-12561
▁कीम	-12562
ावल	-12563
▁बारी	-12564
▁सुनने	-12565
▁178	-12566
cient	-12567
फील्ड	-12568
▁साइन	-12569
▁neither	-12570
▁Following	-12571
तायात	-12572
▁creatures	-12573
▁inn	-12574
▁ब्यू	-12575
▁signed	-12576
▁नदियों	-12577
iber	-12578
▁orb	-12579
▁अनिश्चित	-12580
▁computing	-12581
▁अर	-12582
▁पराग	-12583
acts	-12584
books	-12585
▁writers	-12586
▁providers	-12587
▁objectives	-12588
▁tong	-12589
▁beings	-12590
▁equation	-12591
otherapy	-12592
▁Holy	-12593
▁branch	-12594
▁स्ट्री	-12595
▁समर्थित	-12596
▁initiative	-12597
▁Lim	-12598
▁सिम	-12599
▁scar	-12600
▁भर्ती	-12601
▁tables	-12602
▁बिंदुओं	-12603
▁सेब	-12604
▁hidden	-12605
▁regardless	-12606
▁Dev	-12607
▁fatigue	-12608
▁समायोजित	-12609
▁occurring	-12610
जाने	-12611
▁maintained	-12612
rical	-12613
▁stake	-12614
▁id	-12615
isco	-12616
▁लगाते	-12617
▁सदस्यता	-12618
▁decreased	-12619
eness	-12620
▁Level	-12621
▁wheat	-12622
▁husband	-12623
▁suscept	-12624
▁cham	-12625
▁unw	-12626
uality	-12627
lishing	-12628
▁ton	-12629
▁1994	-12630
▁धीमा	-12631
▁cooling	-12632
sts	-12633
ulating	-12634
▁infant	-12635
▁विजे	-12636
▁विवाद	-12637
▁व्हेल	-12638
▁वर्गीकरण	-12639
▁stability	-12640
opic	-12641
▁सामूहिक	-12642
डिंग	-12643
▁herb	-12644
elescope	-12645
▁structural	-12646
▁ग्ला	-12647
▁dress	-12648
▁temple	-12649
▁बदमा	-12650
▁लेजर	-12651
▁wheel	-12652
▁opposed	-12653
▁Copyright	-12654
▁Consider	-12655
▁constit	-12656
▁Physical	-12657
▁विज्ञापन	-12658
▁cardiovascular	-12659
▁imaging	-12660
▁descript	-12661
▁1.5	-12662
नीकरण	-12663
▁लेखों	-12664
िगर	-12665
र्की	-12666
▁cough	-12667
▁holiday	-12668
▁assigned	-12669
▁64	-12670
class	-12671
▁examined	-12672
▁निर्धारण	-12673
▁Road	-12674
▁समन्वय	-12675
मार्क	-12676
ruption	-12677
▁managing	-12678
hea	-12679
बाजी	-12680
▁Pur	-12681
▁coverage	-12682
▁अवै	-12683
▁joints	-12684
▁कानूनों	-12685
ृत्य	-12686
▁सबूत	-12687
lines	-12688
▁2,000	-12689
▁driven	-12690
▁दर्शकों	-12691
▁rac	-12692
▁conj	-12693
▁tot	-12694
▁advent	-12695
▁tobacco	-12696
▁202	-12697
▁fires	-12698
जीवी	-12699
▁Rom	-12700
▁weakness	-12701
olesc	-12702
र्दृष्टि	-12703
▁संक्रामक	-12704
eor	-12705
▁अणु	-12706
64	-12707
र्दन	-12708
▁Er	-12709
▁intellectual	-12710
ostic	-12711
▁श्वेत	-12712
▁productivity	-12713
घा	-12714
vin	-12715
▁पल	-12716
orph	-12717
▁जानें	-12718
टों	-12719
ोइस	-12720
▁sustainability	-12721
▁Often	-12722
▁श्रवण	-12723
▁स्टार	-12724
▁earliest	-12725
फिल	-12726
▁inequ	-12727
▁दर्शन	-12728
holders	-12729
▁प्रकोप	-12730
▁निकालने	-12731
▁focusing	-12732
syl	-12733
▁यातायात	-12734
▁watching	-12735
▁Ly	-12736
ोटो	-12737
गरीय	-12738
▁judge	-12739
athered	-12740
▁consideration	-12741
▁Grand	-12742
▁Sar	-12743
▁Elizabeth	-12744
▁styles	-12745
An	-12746
300	-12747
▁Ep	-12748
▁लेन	-12749
▁अंतर्दृष्टि	-12750
▁investigation	-12751
ieval	-12752
▁metals	-12753
1:	-12754
▁customer	-12755
▁television	-12756
िटर	-12757
▁गुरु	-12758
],	-12759
occ	-12760
▁prey	-12761
▁जातीय	-12762
▁versions	-12763
▁definitely	-12764
▁कचरे	-12765
▁इंट	-12766
▁टैग	-12767
▁heads	-12768
▁extend	-12769
American	-12770
▁Pakistan	-12771
सब	-12772
पित	-12773
▁interface	-12774
▁moderate	-12775
▁Indians	-12776
▁falling	-12777
▁बेर	-12778
▁exclus	-12779
▁finger	-12780
▁इश	-12781
▁girl	-12782
▁जाया	-12783
▁equally	-12784
मिन	-12785
neys	-12786
श्यों	-12787
▁Look	-12788
▁sought	-12789
▁सेमी	-12790
▁ट्रैक	-12791
▁रिस	-12792
▁चुनें	-12793
▁Small	-12794
▁towns	-12795
▁मिशिगन	-12796
▁substantial	-12797
dr	-12798
▁8,	-12799
▁उंगल	-12800
▁शुष्क	-12801
▁defense	-12802
▁ol	-12803
iture	-12804
▁खुदाई	-12805
▁DO	-12806
▁fo	-12807
▁शिखर	-12808
▁इन्हें	-12809
▁interpre	-12810
▁Dom	-12811
नात्मक	-12812
▁rect	-12813
▁viewed	-12814
▁85	-12815
▁ओरे	-12816
िकासी	-12817
▁lymph	-12818
apor	-12819
▁अक्षय	-12820
istical	-12821
▁मुँह	-12822
▁बचाव	-12823
▁assume	-12824
▁ceremon	-12825
ंबाकू	-12826
▁शिक्षित	-12827
▁adm	-12828
▁seemed	-12829
aneously	-12830
▁drivers	-12831
▁intensity	-12832
uten	-12833
र्वर	-12834
▁वैन	-12835
▁sensor	-12836
▁painful	-12837
▁असाधारण	-12838
▁lighting	-12839
▁rh	-12840
▁परिष्	-12841
▁trauma	-12842
▁5:	-12843
▁alph	-12844
▁Survey	-12845
▁Tim	-12846
▁निर्वा	-12847
उंट	-12848
li	-12849
awn	-12850
aws	-12851
▁निर्देशित	-12852
brid	-12853
ंडलीय	-12854
▁यौगिक	-12855
▁saving	-12856
▁अविश्व	-12857
▁Building	-12858
RA	-12859
▁ग्लोबल	-12860
▁अवरुद्ध	-12861
▁advis	-12862
▁intent	-12863
▁forming	-12864
▁criminal	-12865
▁बिल्ल	-12866
▁analys	-12867
▁भेद	-12868
▁cord	-12869
▁सर्वो	-12870
▁भिन्नता	-12871
▁clock	-12872
▁बुद्धिमान	-12873
▁दुष्प्रभाव	-12874
ptom	-12875
▁Mot	-12876
ोरि	-12877
▁enorm	-12878
▁proved	-12879
▁stones	-12880
ियोन	-12881
▁agents	-12882
▁Support	-12883
▁flexible	-12884
▁seat	-12885
्यान्व	-12886
▁arrest	-12887
▁पृष्ठों	-12888
aren	-12889
ested	-12890
▁bacterial	-12891
▁Laboratory	-12892
ांकन	-12893
▁believes	-12894
erly	-12895
ारोह	-12896
▁श्रेय	-12897
iva	-12898
▁dense	-12899
▁contribution	-12900
otal	-12901
▁ट्व	-12902
rance	-12903
▁preserve	-12904
▁वास्तविकता	-12905
▁IT	-12906
▁grades	-12907
▁safely	-12908
words	-12909
▁pets	-12910
▁tack	-12911
ैश	-12912
▁3)	-12913
▁cab	-12914
▁वेतन	-12915
▁cattle	-12916
illa	-12917
▁steam	-12918
▁medicines	-12919
लाइ	-12920
▁Jac	-12921
▁Way	-12922
ampl	-12923
▁एना	-12924
▁कोलोराडो	-12925
▁खुशी	-12926
▁गुप्त	-12927
▁Wildlife	-12928
▁boat	-12929
74	-12930
ceans	-12931
oids	-12932
▁चिड़	-12933
▁overwhel	-12934
▁mountains	-12935
▁प्रतिबंधित	-12936
▁capabilities	-12937
▁satisf	-12938
box	-12939
ruit	-12940
▁heritage	-12941
▁आह्वान	-12942
ulpt	-12943
▁tick	-12944
▁Gener	-12945
▁ज्वालामुखी	-12946
लग्न	-12947
night	-12948
▁traditions	-12949
▁Point	-12950
▁proportion	-12951
▁डालें	-12952
▁technological	-12953
▁Page	-12954
▁quiet	-12955
▁sizes	-12956
iat	-12957
▁writes	-12958
▁Rh	-12959
▁musical	-12960
▁कार्यान्व	-12961
डोर	-12962
assium	-12963
▁अवधारणाओं	-12964
▁सफलतापूर्वक	-12965
▁अलगाव	-12966
▁देखता	-12967
▁बाइबल	-12968
▁दिखाता	-12969
▁workplace	-12970
▁योजनाओं	-12971
▁Colorado	-12972
▁Cross	-12973
▁Little	-12974
How	-12975
iary	-12976
▁फॉर	-12977
ोत्तम	-12978
▁cort	-12979
▁आख	-12980
▁nutrient	-12981
▁physically	-12982
rison	-12983
▁aimed	-12984
▁weigh	-12985
▁compens	-12986
▁principal	-12987
▁Lincoln	-12988
▁Pennsyl	-12989
▁regulation	-12990
IG	-12991
▁hunting	-12992
alog	-12993
▁Drug	-12994
▁fing	-12995
▁craft	-12996
▁conference	-12997
friend	-12998
▁shoot	-12999
▁farms	-13000
▁swit	-13001
▁मालिकों	-13002
rize	-13003
▁accompan	-13004
▁exception	-13005
uum	-13006
ansas	-13007
▁prohib	-13008
▁mg	-13009
▁घोषित	-13010
▁exhaust	-13011
▁नजर	-13012
▁शरद	-13013
▁adverse	-13014
ba	-13015
▁अकादमी	-13016
डल	-13017
▁grains	-13018
▁channel	-13019
▁tip	-13020
▁हैर	-13021
धीश	-13022
▁les	-13023
▁withd	-13024
▁पत्तियों	-13025
▁considerable	-13026
93	-13027
▁वाद	-13028
▁ग्रिड	-13029
▁परिस्थितियों	-13030
uset	-13031
तत्व	-13032
▁Cell	-13033
▁गर्दन	-13034
▁profit	-13035
▁expectations	-13036
▁Understanding	-13037
▁eru	-13038
▁नींव	-13039
▁Spring	-13040
▁accommod	-13041
▁ecosystems	-13042
ंका	-13043
▁पड़े	-13044
▁audio	-13045
▁शुल्क	-13046
▁drinks	-13047
▁Cr	-13048
▁160	-13049
▁Process	-13050
▁Var	-13051
etary	-13052
▁प्री	-13053
▁बचें	-13054
▁Queen	-13055
▁lock	-13056
▁ताला	-13057
▁हरित	-13058
▁alive	-13059
त्रियों	-13060
▁नाइट्रोजन	-13061
▁EPA	-13062
▁Wal	-13063
▁बनते	-13064
▁Blood	-13065
▁(10	-13066
rolled	-13067
▁Georgia	-13068
agon	-13069
▁ऑप्ट	-13070
▁spots	-13071
▁मिश्रित	-13072
कार्य	-13073
5)	-13074
ugg	-13075
▁PDF	-13076
▁पाठक	-13077
लैंगिक	-13078
▁तंबाकू	-13079
▁गंध	-13080
▁gravity	-13081
▁CP	-13082
ivest	-13083
▁सीखा	-13084
▁इनपुट	-13085
▁एजेंसियों	-13086
▁achievement	-13087
ठी	-13088
▁नॉ	-13089
▁समारोह	-13090
▁conserv	-13091
dd	-13092
▁शास्त्र	-13093
▁कनाडाई	-13094
▁spacecraft	-13095
▁पाठकों	-13096
▁Lin	-13097
▁इंस	-13098
elfare	-13099
▁Image	-13100
▁भागों	-13101
▁",	-13102
ंख्यिक	-13103
▁Place	-13104
▁रोगों	-13105
ंख्यिकीय	-13106
▁insight	-13107
▁rab	-13108
▁epis	-13109
▁Ok	-13110
▁Mond	-13111
▁चमकी	-13112
▁Model	-13113
▁terror	-13114
▁balanced	-13115
▁पहलू	-13116
from	-13117
वुड	-13118
▁लगते	-13119
BT	-13120
▁बहाल	-13121
▁उपन्यास	-13122
▁कछ	-13123
▁बर्तन	-13124
itarian	-13125
ेंच	-13126
icted	-13127
▁transmit	-13128
▁चै	-13129
oured	-13130
▁उम्मीदवार	-13131
▁बेस	-13132
▁तिहाई	-13133
▁रोजगार	-13134
▁counsel	-13135
atively	-13136
ocolate	-13137
ोटे	-13138
▁जैक	-13139
achuset	-13140
▁sodium	-13141
▁डु	-13142
▁manager	-13143
▁Examples	-13144
bean	-13145
▁मरम	-13146
▁Card	-13147
▁मारने	-13148
▁defend	-13149
▁भवन	-13150
▁wearing	-13151
▁Nov	-13152
▁Sup	-13153
▁laid	-13154
▁merely	-13155
▁दृढ़ता	-13156
▁Microsoft	-13157
▁सर्वोत्तम	-13158
enger	-13159
▁टीके	-13160
▁stopped	-13161
▁sched	-13162
achusetts	-13163
ouds	-13164
▁आइए	-13165
▁रेडिय	-13166
▁बदमाशी	-13167
▁cotton	-13168
▁निकासी	-13169
▁emotion	-13170
▁प्रौद्योगिकियों	-13171
▁तीसरे	-13172
▁mothers	-13173
▁चालू	-13174
▁Person	-13175
▁throat	-13176
oli	-13177
ारेन	-13178
▁Should	-13179
iological	-13180
▁Pennsylvania	-13181
ipe	-13182
▁dairy	-13183
▁haven	-13184
▁कार्यान्वयन	-13185
▁shock	-13186
▁Korea	-13187
▁feels	-13188
▁जोसेफ	-13189
▁instant	-13190
▁अल्ज	-13191
▁priority	-13192
▁identification	-13193
▁perm	-13194
▁चैनल	-13195
▁emerging	-13196
▁सश	-13197
स्के	-13198
▁quantity	-13199
ठे	-13200
▁सूरज	-13201
▁embra	-13202
ेंग	-13203
्यूशन	-13204
▁नाटक	-13205
▁राजनीति	-13206
▁Sir	-13207
▁डूब	-13208
▁subsequent	-13209
ाशय	-13210
▁flash	-13211
▁संश्ले	-13212
▁universal	-13213
▁साक्षर	-13214
▁सामान	-13215
▁stations	-13216
▁मुद्दा	-13217
▁exhibit	-13218
अल	-13219
श्रे	-13220
▁slaves	-13221
वेन	-13222
advant	-13223
▁कार्यशाला	-13224
कथ	-13225
▁95	-13226
HA	-13227
▁drag	-13228
▁रक्तस्राव	-13229
har	-13230
▁Secret	-13231
▁literary	-13232
▁बगल	-13233
▁isolated	-13234
▁एशियाई	-13235
ांकित	-13236
▁श्वसन	-13237
century	-13238
oric	-13239
eries	-13240
mentia	-13241
lete	-13242
▁स्टेन	-13243
▁buried	-13244
▁Diet	-13245
▁स्ट्रोक	-13246
▁प्रयोगों	-13247
▁verb	-13248
▁Oxford	-13249
▁wouldn	-13250
▁homework	-13251
▁scr	-13252
▁contributed	-13253
EF	-13254
▁vel	-13255
▁dance	-13256
▁मरम्मत	-13257
▁concluded	-13258
▁assets	-13259
▁devast	-13260
▁calling	-13261
▁permission	-13262
मल	-13263
brew	-13264
▁slave	-13265
▁संकीर्ण	-13266
foot	-13267
rary	-13268
▁Arts	-13269
▁देरी	-13270
▁तस्वीरों	-13271
राज	-13272
▁SS	-13273
▁pros	-13274
:||	-13275
विस	-13276
quar	-13277
▁juice	-13278
east	-13279
▁आश्र	-13280
▁Again	-13281
▁वॉ	-13282
▁summary	-13283
▁sensitivity	-13284
समी	-13285
▁demands	-13286
▁solving	-13287
▁सम्मानित	-13288
▁सभ	-13289
▁इंत	-13290
ashes	-13291
▁Books	-13292
▁Table	-13293
▁faces	-13294
▁correl	-13295
▁अनुकूलन	-13296
▁Sunday	-13297
▁convert	-13298
▁Hor	-13299
▁आंकड़े	-13300
▁improvements	-13301
▁granted	-13302
▁पहाड़ों	-13303
atial	-13304
icular	-13305
▁इंतजार	-13306
mega	-13307
▁Analysis	-13308
▁महल	-13309
▁बीमा	-13310
▁addressed	-13311
▁वायुमंडलीय	-13312
▁ड्राइव	-13313
omers	-13314
▁Pass	-13315
▁psychology	-13316
दु	-13317
▁neuro	-13318
▁communications	-13319
EO	-13320
▁entertain	-13321
▁प्रवि	-13322
त्तियों	-13323
▁associate	-13324
▁विस्तारित	-13325
िल्ला	-13326
▁cann	-13327
▁removing	-13328
▁sessions	-13329
▁जॉनसन	-13330
▁वर्तनी	-13331
▁कोशिकाएं	-13332
एनए	-13333
▁gly	-13334
▁नार	-13335
▁Party	-13336
▁गिरने	-13337
▁नृत्य	-13338
▁तारीखः	-13339
▁elected	-13340
▁shed	-13341
▁flying	-13342
▁Put	-13343
▁Policy	-13344
▁comprom	-13345
▁differently	-13346
िरा	-13347
▁mine	-13348
▁Invest	-13349
▁specialist	-13350
ette	-13351
▁बम	-13352
▁biodiversity	-13353
just	-13354
्यून	-13355
▁दास	-13356
acent	-13357
alities	-13358
▁quarter	-13359
▁inh	-13360
▁translation	-13361
▁11,	-13362
▁निभ	-13363
▁logic	-13364
▁एहसास	-13365
▁dramatic	-13366
▁forecast	-13367
▁हफ्तों	-13368
ivestock	-13369
यी	-13370
▁आना	-13371
▁एमएस	-13372
▁guess	-13373
▁Ram	-13374
▁किमी	-13375
▁fellow	-13376
▁Harvard	-13377
▁आर्द्रभूमि	-13378
ार्कट	-13379
▁खाता	-13380
▁आँखों	-13381
▁vertical	-13382
▁calculate	-13383
▁मार्गों	-13384
usive	-13385
onomic	-13386
▁lists	-13387
▁movie	-13388
▁Pen	-13389
▁ग्रा	-13390
▁बढ़ाता	-13391
▁Mic	-13392
▁Battle	-13393
ॉल्ट	-13394
▁Amazon	-13395
ali	-13396
अब	-13397
ori	-13398
विजन	-13399
▁बनती	-13400
▁अधि	-13401
ogenic	-13402
▁सोया	-13403
▁ऊँचाई	-13404
▁digestive	-13405
,,	-13406
ima	-13407
▁बेसिन	-13408
▁Bul	-13409
spect	-13410
▁अवसरों	-13411
▁clothes	-13412
▁क्षमताओं	-13413
▁Kar	-13414
▁losses	-13415
▁peoples	-13416
▁यहूदियों	-13417
▁performing	-13418
▁separated	-13419
▁spinal	-13420
▁करा	-13421
▁छवियाँ	-13422
▁अणुओं	-13423
hus	-13424
anger	-13425
▁resid	-13426
▁Far	-13427
reens	-13428
▁availability	-13429
ude	-13430
▁Article	-13431
▁vegetation	-13432
ॉर्न	-13433
▁symbols	-13434
▁acquired	-13435
▁assignment	-13436
▁Massachusetts	-13437
▁क्ली	-13438
▁प्रथा	-13439
▁उपायों	-13440
▁gast	-13441
▁मोटे	-13442
▁ओबामा	-13443
▁इंसुलिन	-13444
▁expertise	-13445
▁cub	-13446
▁अवैध	-13447
▁Right	-13448
ums	-13449
▁evil	-13450
▁सीखते	-13451
▁जहाजों	-13452
▁खिलाड़ियों	-13453
▁39	-13454
▁100%	-13455
▁client	-13456
▁गणितीय	-13457
ोसी	-13458
▁ears	-13459
▁Still	-13460
▁सर्जरी	-13461
▁observation	-13462
▁46	-13463
▁pH	-13464
▁प्रेम	-13465
▁Tre	-13466
▁waiting	-13467
हां	-13468
▁Mah	-13469
berry	-13470
▁shad	-13471
▁सराह	-13472
▁फ्रेम	-13473
▁orange	-13474
▁wal	-13475
▁households	-13476
क्यू	-13477
endar	-13478
▁emphasis	-13479
▁worksheets	-13480
fast	-13481
▁सौंप	-13482
उद	-13483
:00	-13484
▁celebrate	-13485
उथ	-13486
▁गले	-13487
▁clay	-13488
▁recre	-13489
▁nutritional	-13490
▁12,	-13491
▁जाति	-13492
▁reverse	-13493
▁reporting	-13494
▁लॉन्	-13495
▁directions	-13496
▁संभ	-13497
itory	-13498
ोटाइप	-13499
▁साधन	-13500
▁टिप्पण	-13501
▁van	-13502
▁ampl	-13503
▁absence	-13504
borne	-13505
सेट्स	-13506
▁crypt	-13507
▁rhyth	-13508
▁illegal	-13509
▁inhabit	-13510
▁charged	-13511
▁ven	-13512
▁attach	-13513
▁thesis	-13514
▁infants	-13515
▁lifetime	-13516
▁telling	-13517
iger	-13518
▁irrig	-13519
्वेनिया	-13520
▁claimed	-13521
▁Ice	-13522
तालवी	-13523
theless	-13524
peror	-13525
▁myst	-13526
▁बढ़ाया	-13527
▁interior	-13528
Un	-13529
रेज	-13530
▁savings	-13531
▁bleeding	-13532
▁विकासशील	-13533
▁marketing	-13534
▁NO	-13535
▁टोप	-13536
▁Print	-13537
earch	-13538
▁span	-13539
▁chair	-13540
फ्ल	-13541
▁Ve	-13542
▁चावल	-13543
▁फेस	-13544
▁exploring	-13545
▁concerning	-13546
▁variations	-13547
▁पोप	-13548
▁अग्रणी	-13549
▁boundaries	-13550
▁उर्वर	-13551
Ar	-13552
yr	-13553
लगभग	-13554
▁बिग	-13555
▁scope	-13556
▁ऊतकों	-13557
▁इकाइयों	-13558
6)	-13559
When	-13560
▁अस्थिर	-13561
▁तलछ	-13562
▁investigate	-13563
अधिक	-13564
▁गेह	-13565
▁wider	-13566
▁देखेंगे	-13567
▁linear	-13568
▁swelling	-13569
▁खनन	-13570
adel	-13571
▁aging	-13572
▁hence	-13573
▁ज्वार	-13574
▁powder	-13575
▁killing	-13576
▁सर्दी	-13577
▁ठंड	-13578
▁ल्यू	-13579
ographical	-13580
▁universities	-13581
स्टेट	-13582
▁2012,	-13583
▁globe	-13584
▁graduate	-13585
पल	-13586
▁खरीदने	-13587
▁टुकड़ा	-13588
ymes	-13589
▁सोमवार	-13590
ुए	-13591
▁पारा	-13592
CE	-13593
▁नामों	-13594
▁thread	-13595
▁परस्पर	-13596
▁उत्परिवर्तन	-13597
▁Media	-13598
▁simult	-13599
▁develops	-13600
rypt	-13601
▁ranging	-13602
▁संस्थाप	-13603
▁lip	-13604
▁लेंस	-13605
▁अभिलेखागार	-13606
irth	-13607
istant	-13608
▁pollut	-13609
▁engines	-13610
▁Think	-13611
▁default	-13612
▁कोशिकाएँ	-13613
▁puzz	-13614
▁Later	-13615
▁neutral	-13616
▁इंटरफेस	-13617
▁मसी	-13618
▁argue	-13619
▁डिब्बे	-13620
▁Agriculture	-13621
ENT	-13622
otype	-13623
▁कोयले	-13624
▁fisher	-13625
ियोप	-13626
▁दुर	-13627
rection	-13628
working	-13629
▁संलग्न	-13630
▁applying	-13631
▁shaped	-13632
▁Systems	-13633
▁quantum	-13634
imm	-13635
▁सोल	-13636
gence	-13637
▁पेशकश	-13638
▁गतिशील	-13639
▁tens	-13640
▁conqu	-13641
▁remarkable	-13642
▁humanity	-13643
युग	-13644
▁illnesses	-13645
थाई	-13646
▁जोड़ता	-13647
▁raising	-13648
▁Computer	-13649
▁Max	-13650
▁ordinary	-13651
MP	-13652
▁pilot	-13653
▁मनोविज्ञान	-13654
▁प्रांत	-13655
▁insights	-13656
irms	-13657
िने	-13658
▁मॉड्यूल	-13659
CA	-13660
▁CH	-13661
▁गैल	-13662
▁Clean	-13663
▁गाड़ी	-13664
▁profile	-13665
▁expanded	-13666
▁(3)	-13667
▁उठाया	-13668
▁choosing	-13669
▁respectively	-13670
िंट	-13671
▁कड़ी	-13672
▁Hum	-13673
▁बालों	-13674
▁outbreak	-13675
▁सल्फ	-13676
▁Watch	-13677
▁mature	-13678
▁पुरातत्व	-13679
▁dimens	-13680
भाविक	-13681
▁खंडों	-13682
▁habitats	-13683
una	-13684
▁hygien	-13685
▁अन्वेषण	-13686
▁क्ले	-13687
चुसेट्स	-13688
▁losing	-13689
▁barriers	-13690
▁characteristic	-13691
▁AL	-13692
▁absorb	-13693
▁अलास्का	-13694
▁गंभीरता	-13695
▁Standard	-13696
▁सव	-13697
▁peer	-13698
▁शिकारी	-13699
▁विद्रोह	-13700
▁behavioral	-13701
1/	-13702
▁घुट	-13703
▁बारह	-13704
जना	-13705
73	-13706
भार	-13707
▁ash	-13708
▁अपनाया	-13709
▁जोड़ों	-13710
▁planted	-13711
साचुसेट्स	-13712
बेल	-13713
thal	-13714
400	-13715
▁अगला	-13716
▁भेदभाव	-13717
▁सर्वोच्च	-13718
olves	-13719
▁scores	-13720
▁अल्जाइमर	-13721
▁meaningful	-13722
यो	-13723
arming	-13724
▁मेजबान	-13725
▁gardens	-13726
▁लिंकन	-13727
▁actively	-13728
मिल	-13729
▁Mach	-13730
▁Dutch	-13731
▁passion	-13732
▁migration	-13733
▁representation	-13734
oto	-13735
html	-13736
▁spr	-13737
▁बाधाओं	-13738
▁reaches	-13739
▁हार्वर्ड	-13740
▁Neu	-13741
नासोर	-13742
▁poetry	-13743
▁गठबंधन	-13744
कोर	-13745
▁रखी	-13746
▁ethical	-13747
▁pill	-13748
▁वनों	-13749
▁मं	-13750
सेप्ट	-13751
▁Proble	-13752
▁उपलब्धि	-13753
opl	-13754
▁experimental	-13755
DS	-13756
izz	-13757
स्वा	-13758
▁मिमी	-13759
▁nuts	-13760
▁manifest	-13761
▁mes	-13762
▁अल्फ	-13763
▁Independ	-13764
▁temporary	-13765
ochem	-13766
▁Wed	-13767
▁ड्यू	-13768
र्सी	-13769
▁सैनिक	-13770
▁promoting	-13771
.2	-13772
ura	-13773
्वल	-13774
▁personality	-13775
▁dies	-13776
▁क्री	-13777
▁खदान	-13778
▁दांत	-13779
▁entering	-13780
ensed	-13781
▁परिपथ	-13782
▁स्वयंसेव	-13783
42	-13784
apes	-13785
▁Call	-13786
▁Islands	-13787
▁Division	-13788
orted	-13789
▁Pain	-13790
▁Write	-13791
▁sculpt	-13792
▁teens	-13793
भौमिक	-13794
▁ISBN	-13795
▁खेलों	-13796
▁बटन	-13797
लिनोइस	-13798
▁इशारा	-13799
▁समझते	-13800
▁allergies	-13801
edu	-13802
▁Friday	-13803
▁टेलीविजन	-13804
▁Resp	-13805
▁lowest	-13806
▁tongue	-13807
ूंगा	-13808
▁eleph	-13809
▁Gar	-13810
▁fet	-13811
▁कॉर्	-13812
▁celebrated	-13813
▁interventions	-13814
sor	-13815
▁Contact	-13816
▁Francisco	-13817
▁Spir	-13818
▁मुकद	-13819
▁Music	-13820
दन	-13821
▁ढक	-13822
▁Cost	-13823
▁सच्च	-13824
▁agent	-13825
▁स्वर्ग	-13826
▁visited	-13827
▁parameters	-13828
▁thereby	-13829
▁कार्बो	-13830
▁साक्षरता	-13831
ुकी	-13832
▁Town	-13833
▁settlement	-13834
▁wisdom	-13835
▁outdoor	-13836
▁दर्शाती	-13837
▁fascinating	-13838
▁घायल	-13839
▁थर्म	-13840
▁streets	-13841
▁cul	-13842
trans	-13843
▁saved	-13844
▁संसाधित	-13845
▁सब्जियों	-13846
▁interpretation	-13847
aneous	-13848
▁creativity	-13849
▁perception	-13850
They	-13851
▁घड़ी	-13852
▁बैंड	-13853
▁तीसरा	-13854
▁libr	-13855
▁पट्टी	-13856
▁restoration	-13857
▁DC	-13858
▁Muslim	-13859
▁Interest	-13860
▁executive	-13861
MA	-13862
idal	-13863
For	-13864
▁आरोप	-13865
▁हजार	-13866
▁Indeed	-13867
asm	-13868
▁Lee	-13869
▁कहाः	-13870
▁Select	-13871
ifier	-13872
▁Ol	-13873
▁Saint	-13874
▁जड़ों	-13875
▁breaks	-13876
▁funded	-13877
▁taxes	-13878
▁handling	-13879
▁गतिशीलता	-13880
▁classified	-13881
ाणु	-13882
▁Much	-13883
▁खड़ा	-13884
quir	-13885
▁भ्रमित	-13886
▁dentist	-13887
मह	-13888
▁हिरण	-13889
▁प्रबंधक	-13890
ियाई	-13891
एंजा	-13892
▁aggressive	-13893
asy	-13894
▁ऐप	-13895
क्सन	-13896
▁टीवी	-13897
▁variation	-13898
▁wat	-13899
▁Edward	-13900
8)	-13901
zer	-13902
चिव	-13903
best	-13904
कक्ष	-13905
▁Within	-13906
ग्न	-13907
▁बिट	-13908
▁फिला	-13909
▁crown	-13910
ूलन	-13911
▁wash	-13912
▁बोस्टन	-13913
▁मैदानों	-13914
▁colonial	-13915
▁ecological	-13916
डियम	-13917
▁परिष्कृत	-13918
▁Introduction	-13919
▁पाय	-13920
▁Islam	-13921
▁transmitted	-13922
ricted	-13923
▁deeply	-13924
▁अंट	-13925
▁Bang	-13926
▁संचरण	-13927
unc	-13928
पाट	-13929
िपीडिया	-13930
देख	-13931
▁fur	-13932
▁owned	-13933
iration	-13934
▁districts	-13935
▁नोड	-13936
▁मौका	-13937
▁diarr	-13938
▁अंटार्कट	-13939
▁Wikipedia	-13940
▁खुलासा	-13941
▁गर्भाशय	-13942
▁arthritis	-13943
▁Christians	-13944
▁मानचित्रण	-13945
▁मासिक	-13946
▁promise	-13947
▁basically	-13948
▁sad	-13949
▁मैसाचुसेट्स	-13950
▁loose	-13951
▁manual	-13952
▁resistant	-13953
▁tor	-13954
▁Dictionary	-13955
But	-13956
जन्य	-13957
▁वाइ	-13958
▁व्यास	-13959
gr	-13960
▁Mid	-13961
▁Teaching	-13962
पह	-13963
पश्चिमी	-13964
▁dating	-13965
▁photographs	-13966
डन	-13967
▁छो	-13968
▁trem	-13969
▁Andrew	-13970
▁Trust	-13971
erts	-13972
स्ट्रो	-13973
▁Behav	-13974
▁पूछें	-13975
▁cas	-13976
▁गड़	-13977
izers	-13978
▁addresses	-13979
Ex	-13980
eting	-13981
▁coat	-13982
▁इस्ला	-13983
▁9,	-13984
▁ID	-13985
▁विदेश	-13986
▁Answ	-13987
▁cheap	-13988
▁सत्या	-13989
oons	-13990
▁ओवर	-13991
ailable	-13992
▁Create	-13993
▁officers	-13994
▁vegetable	-13995
▁प्रवाल	-13996
▁इलेक्ट्रो	-13997
▁Emer	-13998
▁गोल्ड	-13999
▁दिखता	-14000
▁friendly	-14001
▁sug	-14002
91	-14003
sen	-14004
▁chap	-14005
▁soils	-14006
▁split	-14007
▁फायद	-14008
▁bullying	-14009
▁enormous	-14010
▁उन्म	-14011
lymp	-14012
▁Teachers	-14013
▁Heritage	-14014
▁Cop	-14015
▁Best	-14016
▁phones	-14017
▁क्वांट	-14018
elly	-14019
▁empty	-14020
▁प्रशास	-14021
▁संक्षेप	-14022
▁unn	-14023
▁शार्क	-14024
▁इतालवी	-14025
▁abstract	-14026
ोकॉल	-14027
▁प्रशंसा	-14028
क्चर	-14029
▁arguments	-14030
▁lob	-14031
▁pel	-14032
▁shorter	-14033
iop	-14034
▁Self	-14035
▁sulf	-14036
▁adapted	-14037
▁threatened	-14038
▁मेट	-14039
▁इलिनोइस	-14040
▁रिश्	-14041
ांतरण	-14042
▁reput	-14043
▁Different	-14044
छित	-14045
▁बहा	-14046
▁उपयोगिता	-14047
▁copyright	-14048
▁institution	-14049
▁replacement	-14050
▁संवेदनशीलता	-14051
▁clients	-14052
anted	-14053
▁लिएः	-14054
▁केक	-14055
▁सीट	-14056
eping	-14057
▁लिखी	-14058
▁Minister	-14059
▁Nutrition	-14060
लंघ	-14061
made	-14062
▁बुल	-14063
▁विय	-14064
▁hall	-14065
▁Photo	-14066
▁convey	-14067
ारेनहाइट	-14068
▁चिंताओं	-14069
▁breaking	-14070
Sp	-14071
▁spoken	-14072
▁CDC	-14073
▁ग्रहण	-14074
लेक्	-14075
▁chose	-14076
▁degrad	-14077
ूठी	-14078
▁bomb	-14079
▁chicken	-14080
्यो	-14081
green	-14082
▁fought	-14083
▁contributions	-14084
▁Week	-14085
▁inch	-14086
▁origins	-14087
67	-14088
▁स्वाभाविक	-14089
समय	-14090
▁पेज	-14091
rained	-14092
▁preferred	-14093
्रेट	-14094
▁डायनासोर	-14095
▁Hyd	-14096
▁Typ	-14097
obile	-14098
▁ठंडी	-14099
▁वार्	-14100
▁OS	-14101
▁Short	-14102
▁बचे	-14103
सायों	-14104
▁नोटः	-14105
डेन	-14106
▁societies	-14107
semb	-14108
विय	-14109
asma	-14110
▁bare	-14111
urning	-14112
▁evening	-14113
्रोल	-14114
ipher	-14115
▁AR	-14116
▁apps	-14117
▁टिका	-14118
'.	-14119
जील	-14120
▁Fil	-14121
िल्ली	-14122
▁Stan	-14123
atal	-14124
▁उल्लंघ	-14125
▁pointed	-14126
▁हड्डियों	-14127
▁practition	-14128
▁लिखे	-14129
yer	-14130
play	-14131
ician	-14132
▁hospitals	-14133
िष्णु	-14134
▁रोका	-14135
▁duration	-14136
▁accurately	-14137
लेखन	-14138
▁रुझ	-14139
▁विधियों	-14140
▁पूल	-14141
▁वैध	-14142
world	-14143
▁बेटी	-14144
्याज	-14145
▁नौका	-14146
▁beans	-14147
▁healthier	-14148
▁frust	-14149
▁तीसरी	-14150
▁restore	-14151
▁encounter	-14152
▁engagement	-14153
▁विज	-14154
उदाहरण	-14155
▁नगर	-14156
▁Kent	-14157
Cl	-14158
िमा	-14159
▁बीस	-14160
▁सैंड	-14161
्लूएंजा	-14162
▁sleeping	-14163
▁सार्वभौमिक	-14164
▁deer	-14165
▁मच्छ	-14166
▁जीवनी	-14167
▁adolesc	-14168
▁incident	-14169
निर्देश	-14170
▁बढ़ाना	-14171
▁सराहना	-14172
▁ordered	-14173
▁व्यवसायों	-14174
▁thyroid	-14175
▁Material	-14176
वों	-14177
▁pace	-14178
▁शैवाल	-14179
▁ग्राहक	-14180
ideo	-14181
▁dim	-14182
▁चूहे	-14183
astics	-14184
▁जोखिमों	-14185
▁प्रोटोकॉल	-14186
िस्को	-14187
▁noticed	-14188
▁cow	-14189
▁एलि	-14190
▁पाचन	-14191
▁posts	-14192
▁Working	-14193
real	-14194
▁कॉफी	-14195
▁contents	-14196
दर्द	-14197
▁नली	-14198
▁oste	-14199
▁gathered	-14200
▁surgical	-14201
▁extension	-14202
▁specialized	-14203
▁directed	-14204
▁elsewhere	-14205
def	-14206
▁फु	-14207
▁1992	-14208
▁oxid	-14209
▁Monday	-14210
▁डॉक्टरों	-14211
▁integration	-14212
ami	-14213
▁2-	-14214
▁थाः	-14215
▁Gall	-14216
▁कोयला	-14217
icating	-14218
▁वर्षीय	-14219
▁क्वांटम	-14220
▁निष्पाद	-14221
hire	-14222
▁couldn	-14223
▁sciences	-14224
▁democracy	-14225
▁controlling	-14226
▁concentrations	-14227
▁Garden	-14228
▁Mind	-14229
▁resc	-14230
▁Supreme	-14231
▁आकर्षण	-14232
▁Between	-14233
kind	-14234
▁ऑप	-14235
▁hat	-14236
▁currency	-14237
नो	-14238
▁plain	-14239
▁targeted	-14240
▁पेन	-14241
▁चुके	-14242
▁किनारों	-14243
▁severity	-14244
▁literally	-14245
▁मंगलवार	-14246
▁प्रक्षेपण	-14247
fol	-14248
▁तारा	-14249
▁Import	-14250
▁अस्थमा	-14251
▁enemy	-14252
▁determining	-14253
▁pione	-14254
▁integr	-14255
▁Sustain	-14256
neum	-14257
▁attribut	-14258
िशप	-14259
प्रण	-14260
▁बुला	-14261
▁equality	-14262
▁Historical	-14263
▁पूछा	-14264
▁conce	-14265
▁न्यायाधीश	-14266
्सन	-14267
▁Gulf	-14268
▁पुनर्चक्र	-14269
अगर	-14270
▁Wil	-14271
▁हार	-14272
▁preparing	-14273
43	-14274
inois	-14275
raine	-14276
▁एल्ग	-14277
▁buying	-14278
▁superior	-14279
मोर	-14280
▁Polit	-14281
▁Sn	-14282
umer	-14283
ometric	-14284
▁beat	-14285
▁scenario	-14286
▁livestock	-14287
▁Obama	-14288
▁Hebrew	-14289
▁annually	-14290
▁उंगलियों	-14291
usalem	-14292
▁conclus	-14293
roud	-14294
aware	-14295
▁dropped	-14296
▁000	-14297
▁डाक	-14298
▁worship	-14299
▁password	-14300
जली	-14301
▁discussions	-14302
▁LED	-14303
plate	-14304
▁caps	-14305
opher	-14306
▁दीवारों	-14307
▁calculated	-14308
▁वाहनों	-14309
▁knee	-14310
▁minds	-14311
▁volunteers	-14312
oys	-14313
▁कोट	-14314
iking	-14315
▁वस्तुएँ	-14316
▁Download	-14317
▁regarded	-14318
▁समानांतर	-14319
cyclopedia	-14320
tw	-14321
▁tends	-14322
▁टो	-14323
▁overview	-14324
▁हेड	-14325
▁Crit	-14326
▁सहमति	-14327
▁धाराओं	-14328
rh	-14329
▁व्युत्	-14330
▁atoms	-14331
▁मौतों	-14332
▁purchased	-14333
▁बदलना	-14334
▁प्रभावशाली	-14335
सार	-14336
▁Bureau	-14337
▁इंजेक्शन	-14338
htt	-14339
/200	-14340
▁prescribed	-14341
▁पुनर्चक्रण	-14342
ंसित	-14343
▁मजदू	-14344
▁Economic	-14345
▁प्रतीक्षा	-14346
▁disk	-14347
▁पीपी	-14348
ett	-14349
▁इटली	-14350
avirus	-14351
ब्रा	-14352
esium	-14353
▁partnership	-14354
▁Near	-14355
▁प्रतिरोधी	-14356
▁facilitate	-14357
▁optimal	-14358
▁पात्रों	-14359
oul	-14360
cule	-14361
▁विवाह	-14362
▁debris	-14363
▁कहानियाँ	-14364
▁Fish	-14365
▁Given	-14366
▁tomat	-14367
▁incent	-14368
72	-14369
▁seriously	-14370
▁requirement	-14371
elect	-14372
▁union	-14373
▁everywhere	-14374
▁रखती	-14375
▁खेलने	-14376
▁preced	-14377
▁प्रतिभा	-14378
▁Hard	-14379
▁Tool	-14380
▁मुद्रित	-14381
▁सरकारों	-14382
Sh	-14383
▁efficiently	-14384
▁जलन	-14385
रीन	-14386
archy	-14387
▁पिन	-14388
▁उत्साह	-14389
▁समलैंगिक	-14390
▁उपज	-14391
▁लगी	-14392
shaped	-14393
eath	-14394
icts	-14395
▁mouse	-14396
▁ion	-14397
▁cream	-14398
▁butterf	-14399
▁newspaper	-14400
▁continuing	-14401
केन	-14402
iler	-14403
▁PhD	-14404
▁1993	-14405
▁differ	-14406
iah	-14407
asts	-14408
ilst	-14409
regon	-14410
▁देकर	-14411
▁Palest	-14412
▁oceans	-14413
▁soph	-14414
▁सम्रा	-14415
▁Prim	-14416
▁मेहन	-14417
▁converted	-14418
▁देगी	-14419
oves	-14420
▁diets	-14421
▁virtually	-14422
▁ब्ले	-14423
▁versus	-14424
पोल	-14425
▁सख्त	-14426
urable	-14427
लेटर	-14428
▁alert	-14429
▁Making	-14430
▁कैसा	-14431
▁स्का	-14432
▁मूर्ख	-14433
▁700	-14434
unning	-14435
▁varies	-14436
operative	-14437
▁ऑक्स	-14438
▁चुनने	-14439
▁गुलामी	-14440
▁Code	-14441
▁pairs	-14442
▁dementia	-14443
▁बॉ	-14444
▁oils	-14445
▁propag	-14446
▁झिल्ली	-14447
▁readily	-14448
▁dominant	-14449
▁यात्रियों	-14450
▁tone	-14451
ricane	-14452
vi	-14453
▁club	-14454
▁sevent	-14455
▁शुक्रवार	-14456
▁references	-14457
▁पेंसिल्वेनिया	-14458
OM	-14459
▁झुक	-14460
जिस्टर	-14461
▁exped	-14462
▁इन्फ्लूएंजा	-14463
va	-14464
ूँ	-14465
▁परवाह	-14466
▁ढल	-14467
▁reserved	-14468
▁disadvant	-14469
▁glac	-14470
▁रिश्ते	-14471
▁advances	-14472
▁आलू	-14473
▁ritual	-14474
▁संतुलित	-14475
sters	-14476
▁Java	-14477
▁buff	-14478
▁Daniel	-14479
▁circulation	-14480
▁underground	-14481
▁गलती	-14482
ranean	-14483
▁परिकल्पना	-14484
▁accomplish	-14485
मूल	-14486
▁rank	-14487
▁आश्व	-14488
▁settled	-14489
▁अविश्वसनीय	-14490
▁||	-14491
akespe	-14492
▁returns	-14493
▁क्रिस्टल	-14494
्यात्	-14495
▁वादा	-14496
धिकरण	-14497
encing	-14498
▁आश्रय	-14499
▁reveals	-14500
▁traits	-14501
▁Nob	-14502
▁algorithm	-14503
!”	-14504
▁उछ	-14505
▁लॉस	-14506
▁आयात	-14507
▁Essay	-14508
▁भूमध्य	-14509
▁municip	-14510
▁accounting	-14511
▁वां	-14512
▁classic	-14513
▁ब्यूरो	-14514
▁bee	-14515
gener	-14516
▁विज्ञप्ति	-14517
NS	-14518
▁43	-14519
▁tab	-14520
िरी	-14521
▁Navy	-14522
▁Twitter	-14523
New	-14524
▁टैंक	-14525
ीट्यूट	-14526
बूटियों	-14527
EA	-14528
▁कीटों	-14529
▁Jerusalem	-14530
dep	-14531
धवार	-14532
ailed	-14533
म्ब्र	-14534
▁पैरा	-14535
▁पौधा	-14536
▁सारा	-14537
▁उल्लंघन	-14538
▁ब्राजील	-14539
▁पाते	-14540
बड़	-14541
ध्वा	-14542
ध्वाधर	-14543
ructive	-14544
▁बर्बाद	-14545
▁minimize	-14546
बिट	-14547
▁Olymp	-14548
akespeare	-14549
.://	-14550
▁songs	-14551
▁समझौते	-14552
▁Origin	-14553
्यात्मिक	-14554
600	-14555
कें	-14556
डेल्फ	-14557
▁encouraging	-14558
▁पारिस्थितिक	-14559
CH	-14560
eras	-14561
▁peers	-14562
णिक	-14563
erman	-14564
▁tribes	-14565
▁प्रबंधित	-14566
▁Philipp	-14567
▁officer	-14568
ौरी	-14569
▁uniform	-14570
▁marg	-14571
▁surprise	-14572
गेट	-14573
▁तीव्रता	-14574
ologically	-14575
▁Area	-14576
▁duty	-14577
▁hopes	-14578
▁royal	-14579
bow	-14580
▁Justice	-14581
▁Squ	-14582
▁suit	-14583
▁begun	-14584
▁themes	-14585
▁paintings	-14586
▁वन्यजीवों	-14587
▁प्रोग्रामिंग	-14588
▁Rest	-14589
▁नॉर्	-14590
▁भरोसा	-14591
▁realized	-14592
▁प्रसारित	-14593
ometer	-14594
लेक्जें	-14595
▁अनुचित	-14596
▁accompanied	-14597
पतवार	-14598
▁अनुबंध	-14599
infl	-14600
orig	-14601
▁ham	-14602
▁गेट	-14603
▁bibl	-14604
▁जटिलता	-14605
▁दर्शाते	-14606
▁gent	-14607
▁blank	-14608
▁reconst	-14609
▁specified	-14610
▁flexibility	-14611
▁elementary	-14612
वास्त	-14613
▁बंधन	-14614
▁Product	-14615
cled	-14616
जूरी	-14617
▁नमी	-14618
▁चलती	-14619
iments	-14620
▁subsc	-14621
▁कपड़ों	-14622
urches	-14623
▁होंगी	-14624
▁Applic	-14625
rades	-14626
▁enthus	-14627
▁विजेता	-14628
▁competitive	-14629
ग्ध	-14630
▁trace	-14631
नेसोटा	-14632
▁auto	-14633
▁फर्म	-14634
▁प्रसव	-14635
▁quantities	-14636
▁वेन	-14637
▁wooden	-14638
▁Practice	-14639
थल	-14640
requ	-14641
▁Redu	-14642
▁deploy	-14643
rait	-14644
▁4-	-14645
▁earthquake	-14646
शनल	-14647
▁Pu	-14648
▁diagram	-14649
्यूब	-14650
▁पतली	-14651
▁Below	-14652
▁इंस्टीट्यूट	-14653
▁vibr	-14654
▁नाश्	-14655
▁बताती	-14656
▁Proper	-14657
▁opinions	-14658
ोरिया	-14659
▁ग्राहकों	-14660
मंड	-14661
्वर	-14662
▁अनुभवों	-14663
▁shr	-14664
▁सपाट	-14665
▁entit	-14666
▁hydro	-14667
through	-14668
▁finish	-14669
urse	-14670
▁कथन	-14671
ackson	-14672
▁minimal	-14673
▁probability	-14674
▁लुईस	-14675
▁varied	-14676
▁visits	-14677
▁colonies	-14678
▁मुंह	-14679
abling	-14680
▁Confed	-14681
▁जोड़ते	-14682
▁बुधवार	-14683
▁emerged	-14684
zyme	-14685
▁puts	-14686
▁bears	-14687
ोजे	-14688
▁bron	-14689
▁canal	-14690
▁पतन	-14691
▁1991	-14692
▁Brain	-14693
agnetic	-14694
▁Oregon	-14695
▁attitude	-14696
▁displayed	-14697
▁इंजीनियरों	-14698
▁Ont	-14699
▁rod	-14700
And	-14701
▁पहच	-14702
▁दस्त	-14703
▁tough	-14704
▁संयंत्रों	-14705
▁FDA	-14706
▁सबक	-14707
बला	-14708
▁Tri	-14709
▁नंबर	-14710
▁कैमरे	-14711
▁paying	-14712
डेल्फिया	-14713
▁productive	-14714
लाभ	-14715
▁उतार	-14716
प्रणाली	-14717
▁व्यंजन	-14718
▁possibilities	-14719
ालक	-14720
apped	-14721
▁dism	-14722
▁embry	-14723
▁पेरिस	-14724
▁salmon	-14725
▁Schools	-14726
▁किताबें	-14727
▁accidents	-14728
▁susceptible	-14729
ptic	-14730
urrent	-14731
▁लिखें	-14732
▁वापसी	-14733
▁mistakes	-14734
▁तित	-14735
▁maxim	-14736
▁Father	-14737
फना	-14738
▁bless	-14739
▁acting	-14740
▁क्षतिग्रस्त	-14741
▁gift	-14742
▁shore	-14743
▁आयरिश	-14744
▁पूर्वा	-14745
friendly	-14746
डु	-14747
issance	-14748
▁Fred	-14749
▁मादा	-14750
▁zones	-14751
isations	-14752
▁Student	-14753
▁contributing	-14754
▁मिसिस	-14755
▁Master	-14756
▁41	-14757
ishop	-14758
▁Force	-14759
▁assembly	-14760
▁0.0	-14761
▁Los	-14762
ंशिकी	-14763
▁occas	-14764
▁alternatives	-14765
ffe	-14766
▁vom	-14767
▁कूद	-14768
ाइयों	-14769
▁Paper	-14770
हालांकि	-14771
▁पहुँचने	-14772
▁विकिपीडिया	-14773
Sc	-14774
पृ	-14775
rub	-14776
▁suicide	-14777
CP	-14778
oa	-14779
wan	-14780
▁muc	-14781
▁anger	-14782
▁मानवा	-14783
▁फेसबुक	-14784
oler	-14785
▁Alaska	-14786
▁grounds	-14787
▁वोल्टेज	-14788
▁chocolate	-14789
ols	-14790
▁कर्	-14791
▁rational	-14792
▁parad	-14793
▁winds	-14794
oca	-14795
▁15,	-14796
▁lakes	-14797
▁मंजूरी	-14798
▁Number	-14799
▁clouds	-14800
▁blo	-14801
▁2012.	-14802
▁viral	-14803
▁Connect	-14804
rix	-14805
▁जिला	-14806
▁embed	-14807
▁कार्यात्मक	-14808
▁उत्सव	-14809
▁मिलीग्राम	-14810
-17	-14811
शित	-14812
disc	-14813
▁tom	-14814
▁उपचारों	-14815
profit	-14816
▁erosion	-14817
▁restaur	-14818
्नी	-14819
▁Action	-14820
▁streams	-14821
▁Ariz	-14822
▁टिकाऊ	-14823
▁पीढ़ियों	-14824
BA	-14825
▁Dam	-14826
▁Ide	-14827
▁reasonable	-14828
▁स्वच्छता	-14829
▁motivation	-14830
▁brains	-14831
▁rainfall	-14832
▁लू	-14833
duction	-14834
▁registered	-14835
▁मिलते	-14836
▁privacy	-14837
▁limitations	-14838
विवार	-14839
▁beet	-14840
▁sees	-14841
agen	-14842
संख्य	-14843
▁Need	-14844
▁हाइप	-14845
▁Vietnam	-14846
▁dramatically	-14847
▁रोल	-14848
▁Defin	-14849
▁परजीवी	-14850
ुद्रग्रह	-14851
▁endangered	-14852
▁खिलौ	-14853
▁मसीह	-14854
▁indoor	-14855
▁50%	-14856
bour	-14857
▁sheets	-14858
▁suggestions	-14859
▁Santa	-14860
▁कच्चे	-14861
▁potassium	-14862
ंदाज	-14863
▁genome	-14864
.'	-14865
ंतरण	-14866
▁dried	-14867
:5	-14868
▁Ult	-14869
▁डीएनए	-14870
▁रूढ़िवादी	-14871
पेट	-14872
▁ओक	-14873
▁Apple	-14874
▁जूनियर	-14875
बरा	-14876
▁Antar	-14877
▁निवार	-14878
▁colony	-14879
▁एल्गोरि	-14880
▁complexity	-14881
▁transplant	-14882
▁Sleep	-14883
▁pesticides	-14884
▁wing	-14885
▁अर्जित	-14886
▁dil	-14887
▁Illinois	-14888
▁alongside	-14889
▁recording	-14890
▁व्याख्यान	-14891
▁ओल	-14892
▁तलछट	-14893
▁prime	-14894
▁जीवंत	-14895
▁sending	-14896
49	-14897
▁NOT	-14898
▁असह	-14899
▁लिप	-14900
▁Section	-14901
▁लोकतंत्र	-14902
ष्मा	-14903
▁नाभ	-14904
iders	-14905
▁Local	-14906
▁परेशानी	-14907
▁भ्रम	-14908
▁Assessment	-14909
olph	-14910
▁membrane	-14911
▁reef	-14912
▁Century	-14913
▁exhibition	-14914
▁सूक्ष्मजीव	-14915
ांदी	-14916
▁asc	-14917
▁classical	-14918
▁मंत्री	-14919
▁हथियार	-14920
▁immigrants	-14921
cut	-14922
uber	-14923
▁कम्प	-14924
▁बाईं	-14925
▁संकाय	-14926
▁12.	-14927
▁tric	-14928
▁brush	-14929
▁Others	-14930
position	-14931
▁electrons	-14932
▁conversion	-14933
▁विशेषज्ञता	-14934
सद	-14935
▁Sus	-14936
▁गार	-14937
▁अक्षरों	-14938
▁developments	-14939
aka	-14940
▁Major	-14941
▁alumin	-14942
▁खरपतवार	-14943
41	-14944
▁14,	-14945
▁soy	-14946
▁Offic	-14947
▁Cub	-14948
▁Poly	-14949
▁प्रेरणा	-14950
▁ऊर्ध्वाधर	-14951
Our	-14952
सूत्र	-14953
▁welfare	-14954
▁addressing	-14955
▁Ww	-14956
berries	-14957
▁grammar	-14958
▁algorithms	-14959
▁hypothesis	-14960
▁Date	-14961
▁compass	-14962
▁kitchen	-14963
तियाँ	-14964
▁cigare	-14965
▁discharge	-14966
▁जाएं	-14967
▁पकाने	-14968
▁स्थानिक	-14969
erty	-14970
▁गुरुवार	-14971
▁यांत्रिक	-14972
वाट	-14973
साइटी	-14974
▁Full	-14975
▁combine	-14976
▁टेप	-14977
▁संपी	-14978
▁ट्राइ	-14979
▁allergic	-14980
ais	-14981
प्ल	-14982
▁आधी	-14983
▁shoes	-14984
▁relate	-14985
rowth	-14986
▁आध्यात्मिक	-14987
▁calm	-14988
▁सजाव	-14989
▁टूटने	-14990
▁आनुवंशिकी	-14991
▁Occ	-14992
वीनीकरण	-14993
▁installation	-14994
▁गोला	-14995
▁अवरोध	-14996
▁उद्यम	-14997
▁संपादित	-14998
IF	-14999
साब	-15000
▁उदार	-15001
outheast	-15002
▁regulate	-15003
▁encl	-15004
▁Parents	-15005
▁Ren	-15006
ocity	-15007
▁spine	-15008
▁पर्यवे	-15009
▁भूमिगत	-15010
▁violent	-15011
▁Training	-15012
▁committee	-15013
▁popularity	-15014
▁मत्	-15015
atoes	-15016
▁bottle	-15017
▁"(	-15018
▁11.	-15019
▁Indones	-15020
▁swimming	-15021
दायक	-15022
▁Bal	-15023
▁Line	-15024
▁दोषी	-15025
▁कार्ल	-15026
▁beneath	-15027
)|	-15028
sex	-15029
adelph	-15030
▁आयरलैंड	-15031
▁सिरदर्द	-15032
▁sediment	-15033
▁Lew	-15034
▁sup	-15035
▁अनुमो	-15036
▁utility	-15037
▁acknowled	-15038
▁क्षुद्रग्रह	-15039
▁अल्ट	-15040
▁mammals	-15041
cin	-15042
हमने	-15043
▁cuts	-15044
▁lecture	-15045
oded	-15046
▁2.5	-15047
▁Altern	-15048
ika	-15049
▁doses	-15050
▁anticip	-15051
▁improves	-15052
▁particle	-15053
▁ब्लू	-15054
▁अलेक्जें	-15055
▁wings	-15056
▁Aff	-15057
quality	-15058
▁gif	-15059
▁bull	-15060
▁क्लब	-15061
▁crack	-15062
▁प्रतिकूल	-15063
िब	-15064
▁celeb	-15065
▁साइटों	-15066
▁रोमांचक	-15067
▁unlikely	-15068
▁soul	-15069
▁hal	-15070
▁excav	-15071
▁लिम्फ	-15072
▁ध्रुवीय	-15073
▁Marine	-15074
▁Cambridge	-15075
▁involvement	-15076
यानक	-15077
▁Spe	-15078
▁पड़ोसी	-15079
▁डालते	-15080
▁impair	-15081
▁managers	-15082
▁cooperation	-15083
मकाल	-15084
▁सोसाइटी	-15085
▁scheme	-15086
▁झीलों	-15087
श्न	-15088
▁मले	-15089
▁sale	-15090
▁wise	-15091
▁Exerc	-15092
▁attitudes	-15093
वियत	-15094
▁sheep	-15095
▁strike	-15096
▁Ancient	-15097
▁Mexican	-15098
▁जीवविज्ञानी	-15099
कार्ड	-15100
▁फिलाडेल्फिया	-15101
ila	-15102
ोपड़ी	-15103
▁STEM	-15104
▁tension	-15105
arten	-15106
▁Prom	-15107
▁प्रकारों	-15108
eutic	-15109
▁bite	-15110
▁संकल	-15111
▁गेहूं	-15112
▁discipline	-15113
▁joy	-15114
टॉप	-15115
▁जेर	-15116
▁hygiene	-15117
▁certific	-15118
▁मिसिसिपी	-15119
▁प्रयोगात्मक	-15120
ुपयोग	-15121
▁codes	-15122
▁47	-15123
▁शेल	-15124
▁dipl	-15125
▁Field	-15126
▁spreading	-15127
▁chromos	-15128
▁analyzed	-15129
▁atmospheric	-15130
▁tumors	-15131
aping	-15132
▁बूंद	-15133
▁ber	-15134
▁सुलभ	-15135
▁Grade	-15136
▁Minnes	-15137
▁Rather	-15138
63	-15139
oz	-15140
▁Iran	-15141
▁3,000	-15142
▁स्लाइड	-15143
▁invasive	-15144
▁prevents	-15145
page	-15146
▁initiatives	-15147
न्यू	-15148
▁दफना	-15149
▁नियो	-15150
▁मोंट	-15151
▁कीड़ों	-15152
▁समकालीन	-15153
▁enjoyed	-15154
▁symptom	-15155
▁profound	-15156
unar	-15157
icity	-15158
▁वृक्ष	-15159
▁सावधान	-15160
▁influences	-15161
▁nom	-15162
▁uncle	-15163
▁रॉकेट	-15164
▁suddenly	-15165
▁जेट	-15166
▁भरपूर	-15167
▁Arizona	-15168
▁containers	-15169
▁metabolism	-15170
▁requiring	-15171
▁reign	-15172
▁बदलते	-15173
▁fraction	-15174
▁पेटेंट	-15175
uis	-15176
elve	-15177
▁Islamic	-15178
▁दर्दनाक	-15179
bell	-15180
▁incorporate	-15181
agan	-15182
कथित	-15183
▁rooms	-15184
▁मल्टी	-15185
87	-15186
▁गे	-15187
ocated	-15188
▁Hence	-15189
▁रूपरेखा	-15190
ati	-15191
reprene	-15192
▁visiting	-15193
OW	-15194
▁ऊँची	-15195
▁jaw	-15196
▁pine	-15197
▁नकल	-15198
▁आवाज	-15199
ivities	-15200
▁ranges	-15201
▁छू	-15202
▁म्यू	-15203
healthy	-15204
▁ट्रै	-15205
▁मिनेसोटा	-15206
▁surprising	-15207
▁प्रणालियाँ	-15208
▁सीधा	-15209
▁Story	-15210
▁persu	-15211
▁qualities	-15212
III	-15213
▁कचरा	-15214
▁grams	-15215
▁shade	-15216
▁tempor	-15217
▁neurons	-15218
▁representing	-15219
▁!	-15220
ार्ध	-15221
atter	-15222
issipp	-15223
section	-15224
▁दुरुपयोग	-15225
▁ow	-15226
▁मोम	-15227
▁बुरी	-15228
adelphia	-15229
▁Aud	-15230
▁कीमतों	-15231
▁abundant	-15232
▁Tradition	-15233
bel	-15234
▁fant	-15235
owered	-15236
regular	-15237
▁perfectly	-15238
▁reflected	-15239
child	-15240
▁hurt	-15241
▁Unt	-15242
ोत्तर	-15243
▁रहित	-15244
▁developers	-15245
▁contaminated	-15246
धशाला	-15247
▁Flow	-15248
▁fifth	-15249
aints	-15250
▁हार्	-15251
▁whenever	-15252
ugs	-15253
orus	-15254
▁हेप	-15255
author	-15256
▁posted	-15257
▁Move	-15258
▁pink	-15259
▁shelter	-15260
▁Questions	-15261
▁bags	-15262
▁appointed	-15263
▁candidate	-15264
▁प्रतिबिंबित	-15265
▁rays	-15266
▁valve	-15267
-30	-15268
रूप	-15269
mail	-15270
सिया	-15271
▁vig	-15272
▁Hindu	-15273
ोरा	-15274
▁वेधशाला	-15275
▁उत्तेजना	-15276
ubble	-15277
▁arise	-15278
▁legend	-15279
▁module	-15280
▁पैक	-15281
▁ओरेगन	-15282
imp	-15283
▁unem	-15284
▁2013.	-15285
▁आकृति	-15286
ग्रियों	-15287
▁allergy	-15288
mble	-15289
▁Map	-15290
▁Chief	-15291
▁shoulder	-15292
▁confident	-15293
▁Tit	-15294
▁तभी	-15295
acles	-15296
▁पूछता	-15297
▁sacred	-15298
▁engineer	-15299
▁borrow	-15300
▁Similarly	-15301
mann	-15302
हमें	-15303
▁आभासी	-15304
▁सम्राट	-15305
▁गुफा	-15306
▁invented	-15307
पिल	-15308
फॉर्म	-15309
▁collective	-15310
▁corresponding	-15311
▁penet	-15312
▁burden	-15313
▁CT	-15314
▁गैसों	-15315
▁बढ़कर	-15316
▁सामग्रियों	-15317
विभा	-15318
▁सहज	-15319
▁Text	-15320
▁Fac	-15321
▁विपण	-15322
▁Scientific	-15323
▁मोड	-15324
▁pipe	-15325
▁package	-15326
▁Minnesota	-15327
▁धूम	-15328
▁Alexander	-15329
▁sew	-15330
▁सीडी	-15331
▁worker	-15332
▁preserved	-15333
rue	-15334
▁पावर	-15335
▁province	-15336
lims	-15337
▁विकासवादी	-15338
sk	-15339
▁रेश	-15340
▁cheese	-15341
▁ultimate	-15342
▁प्रभावशीलता	-15343
▁Mur	-15344
▁भयानक	-15345
▁stabil	-15346
▁प्रतिस्थापन	-15347
▁धमनी	-15348
▁हालिया	-15349
▁Mathemat	-15350
▁Individual	-15351
▁Ba	-15352
जनों	-15353
▁20,	-15354
▁Fair	-15355
▁Name	-15356
सभी	-15357
प्रे	-15358
erving	-15359
ट्रिक्स	-15360
▁रसो	-15361
▁toys	-15362
▁डेयरी	-15363
ogens	-15364
▁सचिव	-15365
▁प्रिय	-15366
▁strange	-15367
▁Diabetes	-15368
थाकथित	-15369
▁sampl	-15370
▁toile	-15371
▁varying	-15372
▁perceived	-15373
▁त्रि	-15374
▁संधि	-15375
▁curve	-15376
ंकु	-15377
बेथ	-15378
▁CS	-15379
▁Turn	-15380
▁prox	-15381
▁सूखी	-15382
▁Benef	-15383
▁Object	-15384
mod	-15385
oice	-15386
▁enz	-15387
▁memories	-15388
▁अमीर	-15389
▁ending	-15390
▁नस्लीय	-15391
▁%	-15392
▁गैलन	-15393
▁Jackson	-15394
▁magazine	-15395
ighth	-15396
redit	-15397
▁Event	-15398
▁आवेदन	-15399
▁रविवार	-15400
▁Station	-15401
▁ज्यामित	-15402
▁absolutely	-15403
▁gate	-15404
▁Enter	-15405
▁predicted	-15406
अपने	-15407
▁130	-15408
▁wars	-15409
▁Temple	-15410
▁wireless	-15411
▁स्विच	-15412
▁faculty	-15413
▁आमंत्रित	-15414
▁fiction	-15415
▁मधुमक्खियों	-15416
▁developmental	-15417
▁भय	-15418
▁यो	-15419
▁चोटों	-15420
▁प्राणी	-15421
▁Li	-15422
zone	-15423
▁पहाड़	-15424
▁मत्स्य	-15425
▁युक्त	-15426
▁robots	-15427
▁segment	-15428
▁आर्ट	-15429
▁सोडियम	-15430
▁Ira	-15431
▁draft	-15432
▁समझौता	-15433
▁49	-15434
▁सिक	-15435
▁eaten	-15436
▁distant	-15437
▁fingers	-15438
▁Standards	-15439
ब्बों	-15440
▁dish	-15441
oline	-15442
▁noun	-15443
▁stems	-15444
▁Centers	-15445
PR	-15446
▁emit	-15447
▁dimin	-15448
▁वंशावली	-15449
:1	-15450
▁हल्की	-15451
▁जंगलों	-15452
▁optical	-15453
▁intention	-15454
▁MA	-15455
▁बलों	-15456
▁स्ट्रिंग	-15457
▁infectious	-15458
▁browser	-15459
▁व्यक्तित्व	-15460
▁designated	-15461
▁(“	-15462
uled	-15463
▁नौकरियों	-15464
पात	-15465
ifer	-15466
▁Creek	-15467
▁सोवियत	-15468
▁barrier	-15469
▁injured	-15470
▁sectors	-15471
▁sensory	-15472
▁tact	-15473
▁Gh	-15474
stru	-15475
▁cycles	-15476
▁evident	-15477
▁राजमार्ग	-15478
▁happiness	-15479
uan	-15480
जुर्ग	-15481
मय	-15482
asal	-15483
thew	-15484
▁Exp	-15485
▁Van	-15486
iterranean	-15487
▁प्रतिस्थापित	-15488
लम	-15489
▁चांदी	-15490
▁totally	-15491
▁prescription	-15492
▁फर्श	-15493
▁adopt	-15494
▁Clinical	-15495
▁Mountain	-15496
▁Mississipp	-15497
▁wake	-15498
endment	-15499
▁orders	-15500
efficient	-15501
▁explicit	-15502
▁documented	-15503
लियाँ	-15504
mented	-15505
ावधान	-15506
2-	-15507
वस्त	-15508
ourse	-15509
worth	-15510
▁identical	-15511
▁attractive	-15512
EG	-15513
▁मोर	-15514
▁labour	-15515
▁स्वदेशी	-15516
▁प्रतिष्ठित	-15517
▁चलते	-15518
western	-15519
▁reproductive	-15520
▁consciousness	-15521
▁circul	-15522
▁Commons	-15523
▁logical	-15524
▁चिड़िया	-15525
▁fertilizer	-15526
▁आदत	-15527
uther	-15528
▁मुर्गी	-15529
▁fitness	-15530
▁assistant	-15531
रणी	-15532
▁(7	-15533
घाटन	-15534
▁gods	-15535
▁restrictions	-15536
▁छाती	-15537
▁तैना	-15538
▁ब्लॉक	-15539
di	-15540
▁scales	-15541
▁magnitude	-15542
▁vag	-15543
▁precip	-15544
▁achieving	-15545
▁Indigenous	-15546
▁स्टॉक	-15547
▁conflicts	-15548
▁neglect	-15549
aded	-15550
thod	-15551
ूड	-15552
▁56	-15553
▁पायल	-15554
▁hybrid	-15555
▁रॉक	-15556
▁कनेक्शन	-15557
▁यथ	-15558
duate	-15559
▁parks	-15560
▁candidates	-15561
▁acceptable	-15562
▁appointment	-15563
▁ster	-15564
▁personnel	-15565
अभी	-15566
अंदाज	-15567
▁appl	-15568
▁prone	-15569
▁शिल्प	-15570
bul	-15571
swe	-15572
स्क्र	-15573
▁Capt	-15574
▁बताने	-15575
▁compos	-15576
[...]
